/**
  ******************************************************************************
  * @file    network_normalized_data.c
  * @author  AST Embedded Analytics Research Platform
  * @date    Sun Feb 13 21:17:07 2022
  * @brief   AI Tool Automatic Code Generator for Embedded NN computing
  ******************************************************************************
  * @attention
  *
  * Copyright (c) 2022 STMicroelectronics.
  * All rights reserved.
  *
  * This software component is licensed by ST under Ultimate Liberty license
  * SLA0044, the "License"; You may not use this file except in compliance with
  * the License. You may obtain a copy of the License at:
  *                             www.st.com/SLA0044
  *
  ******************************************************************************
  */
#include "network_normalized_data.h"
#include "ai_platform_interface.h"


AI_ALIGNED(32)
const ai_u64 s_network_normalized_weights_array_u64[ 1490 ] = {
  0x402df634bf99c070U, 0xbfc5a0023de8a836U, 0x3eeb97cc3fcdab1cU, 0x3f6d2dc23f084364U,
  0x3efa93c3bead3561U, 0x3e878f4bbddcfd04U, 0xbf6ec7173f3331d7U, 0x3d6ba85b3f221ae9U,
  0xbf677e033f203ef3U, 0x3f0b74b2be60bbc1U, 0xbeb3c1d5bf1f21afU, 0xbe79e92f3e84e837U,
  0xbe8dc77bbe87c828U, 0xbefbcf12be68d779U, 0x3e44f5f5be60950cU, 0x3e8d408c3dafa7b9U,
  0x3e838ff8be18fb90U, 0xbd838839bdc91ac4U, 0xbe4a06eb3e827294U, 0x3d8c8086bf2ba68dU,
  0xbebc8d79bf2406dfU, 0xbeb2ff4f3d2953c0U, 0x3eb444f03d1a7f41U, 0xbdeabceebf7ae96aU,
  0xbf3249753e8cf251U, 0x3f0c10383d8604bcU, 0xbd8a09efbdd6c841U, 0x3f3965acbe3959d5U,
  0xbf07e1b3beedf9b4U, 0xbebff35a3f98355cU, 0x3eccab97400176c4U, 0x3fa73a04bea4db03U,
  0xbdbc01c43f845343U, 0x3f3cf0933eb39eb7U, 0xbfd80d87be04b463U, 0x3c1b3b203e3a8d9dU,
  0xbf3e3acebfdcebe8U, 0xbf3de407be159b1fU, 0x3e30f13bbf1cb07eU, 0xbf104765bfa32e44U,
  0xbf239cab3ae78819U, 0x3d3594a13d44c2c6U, 0x3e3fcf733e79973eU, 0x40026dd0bf0db2f8U,
  0xbeb4aac3be1e2461U, 0x3e12473e3c40017bU, 0x3df7a0dfbdfe2f35U, 0xbe6c85533e0d8e17U,
  0x3d3768f43e740df9U, 0x3e969816bec9277aU, 0xbe5e4289bd8086ddU, 0xbe8cd5b3be4ba0b0U,
  0xbe0cc9dcbcec1f88U, 0xbdd58a75bc860c52U, 0x3cb6f5953e0ae894U, 0x3d57d27bbd908bbcU,
  0xbdb8123dbdf2b159U, 0xbcb29acdbd99fcbdU, 0x3d801e58bdb7b7acU, 0x3d04a442bdd34eb6U,
  0x3e41d79a3cfd28c8U, 0xbd25b406bdf51056U, 0xbe3a13e03d013881U, 0xbe11f6c4bd3a497aU,
  0xbd168b2abdc8d12eU, 0xbdb311433c9b53f7U, 0x3c2028623cf0f6bfU, 0x3dd05924be4cb4b5U,
  0xbcf9080a400954eeU, 0xbd932fef3f27f88fU, 0x3f7b8980bd75f61fU, 0x3d8f0b5e3d96f94bU,
  0xbf51c0493eaf30e6U, 0xbeecef5ebc8f464eU, 0xbcb528b8bfec2ae1U, 0xbce17f353d90c7bbU,
  0x3bf42455bb8537ecU, 0xbd95ee78bda78cddU, 0x3a945388be15e3ecU, 0x3d297595bdd55459U,
  0xbe5e4483be4bf55eU, 0xbe427b10bc0d4b4fU, 0x4003a647bdcf39a5U, 0xbf2f49ee3f58f31bU,
  0x3fb2482b3fb043a0U, 0xbe8ec6e1bec38531U, 0x3d8eae5f3f193e5dU, 0xbe197faac00650d8U,
  0xbfc1a4d0be07a44fU, 0xbc2c638abf2b43e9U, 0x3e8b4251be07f0d5U, 0xbf5315f4bef4000cU,
  0xbe95b63cbe2c1abcU, 0xbf04e764bf49deafU, 0x3e89f662becf5e31U, 0x3d570076bdd229ceU,
  0xbe65058d3f4c0fb8U, 0xbfe3a746bdbda82aU, 0x3e6fdbf73fe67c0bU, 0x3f8bfb2bbf8f5e43U,
  0x3ef7bf68be6b8032U, 0xbf10866e3e91a01bU, 0xbf2f81c63eb7a809U, 0x3ebb386abdc8c895U,
  0x3ecf70cbc0133d4fU, 0x3fbff21ebfc66a45U, 0xbfcababcbe8969e1U, 0xbe5156033f9610efU,
  0x3f83b7193e95960fU, 0x3ed3ae14bf9ca609U, 0xbe99148f3e0d2402U, 0xbf524896bdf65244U,
  0x3e1352c53dd4a8afU, 0xbf165c8c3eb65af3U, 0x3f01183ebde8fd15U, 0x3e6dbad2bf28b535U,
  0xbf4cf4fe3ec4367fU, 0x3eadac2f3ebfc9e5U, 0xbe8a667dbf196760U, 0xbea46fecbf086eecU,
  0xbec6ff773e0a5929U, 0xbeaf8c1ebea7839bU, 0xbe802a7abd610299U, 0xbda810d3be5a165cU,
  0xbe7d42a9bd49c440U, 0xbdfb4031bdd8b12eU, 0xbe5c26b4be885213U, 0xbf04ca69be9b7367U,
  0x3daaffa8bd8f138aU, 0xbe09c6d1bdb5ee9dU, 0xbdcc2c80be39019dU, 0xbe17669c3dab3c9fU,
  0x3c9f9e20bde9bfa9U, 0x3c7cf6a7bce04b8eU, 0x3dca67603d191da8U, 0xbcc3f01dbe8cb3a5U,
  0xbe11161e3cf8cd10U, 0x3d5cdefa3dd0c194U, 0xbe259f16bd40bd5dU, 0xbd42aa17be8184f3U,
  0xbe1d507abe037c47U, 0x3e1021f8bd3028c0U, 0xbe3167433da97c94U, 0xbd7b57363c80bc54U,
  0xbe07df803db85d5dU, 0xbe5dbda4bdb47ab8U, 0x3e0cc4a9bdff93eaU, 0xbe2eaacfbe13301aU,
  0xbba1186e3dce66b4U, 0xbd3b0b4dbe29fee2U, 0xbe574acdbc26ca3aU, 0xbca92514bdd72bc0U,
  0xbf697281beda0f27U, 0x3da47620bdf10445U, 0x3e846276bf2eb3e1U, 0x3da35abcbec6fe9eU,
  0xbe6965f73d868370U, 0xbf3191703e4c4b36U, 0xbe0ddd99be7f9dffU, 0xbf94e896bf3828ecU,
  0x3e351f9fbe77119bU, 0x3f016f383da90ab0U, 0xbf6099d73f9ec92cU, 0x3bb0bdc03e42cb28U,
  0xbd59dc253b854140U, 0x3fd53560be00b6f6U, 0x3cdbdbb3bf1cc745U, 0xbe8e5178be9e2ed9U,
  0xbd7086b63e5f299eU, 0xbd9fa9babd51e161U, 0x3e8e4d6c3e5e4037U, 0x3d2ce4243e5dd1caU,
  0xbeb32e803d2a10fcU, 0x3f630765bbbd9cc0U, 0x3f2a7c173e9982eeU, 0x3df280a83f0aeb1fU,
  0xbddbe29bbf3a42beU, 0x3d3efef03997a379U, 0xbeee1724be84e6ccU, 0xbd6ed469be4b988dU,
  0xbe61b0ee3d28d6bcU, 0xbcc9ee203cf1774cU, 0xbf4c67c4be41dd76U, 0xbeeadd60bed720ccU,
  0x3ed95b143e4997a5U, 0xbbbdc385be01078bU, 0xbf5561d53e833ec4U, 0x3c8c6e75bc86e1a8U,
  0xbf26909cbe002bbfU, 0xbcdf5cbfbe115ca7U, 0x3cf43304be0e76a5U, 0xbe8480253ecc4432U,
  0x3f324a3c3f31f602U, 0xbdd1c18abd89686cU, 0x3e16a8143e88936bU, 0xbc5067203d832871U,
  0xbef4fadbbe0317cfU, 0xbe72de983d407808U, 0x3ce795813df99d3cU, 0xbec6f76b3dde3adbU,
  0xbede3abb3e1b8c86U, 0x3d267ee33e58eb4fU, 0x3dbb6483bf1e390cU, 0x3e69d39ebd13717fU,
  0x3f6119ad3ca31740U, 0xbf579f513e564972U, 0x3f2bfd8abf04eacbU, 0xbe09b6b4bde8fa60U,
  0xbdfeea46bf6cc7adU, 0x3e888a8abe20d23bU, 0x3ef4cdcfbf99332dU, 0xbd64560bbe0a974bU,
  0xbf1402f8bd862226U, 0xbf2b46c0bcb65417U, 0xbe988866be0bc4c0U, 0xbebfdd2dbeb9c900U,
  0x3f10e987bf8bf15dU, 0x3eb91eecbe7b32e4U, 0xbeb8f4ecbf26696cU, 0x3d1b86cebd1b5f89U,
  0xbf8e88603df87b90U, 0xbf3a7b753e2faac8U, 0xbf3158fb3e9c4621U, 0x3e138ba3bdd10d30U,
  0x3e5187fabe432436U, 0x3c0e61ba3d23515bU, 0x3e4333923f95dc15U, 0x3d8f871fbd6dfab2U,
  0xbd80163abdabd783U, 0x3f8d7f7d3e430dfaU, 0xbf12bb08bf1916b7U, 0x3e217037bf265ef5U,
  0x3f28fd95bbc14f7dU, 0x3d17f6d5bee73495U, 0x3f81d2833ea6e0b0U, 0x3cba2a80be96d98fU,
  0xbedb3f54be154da2U, 0x3f9208313e38615cU, 0x3d11b0ed3eeb5310U, 0xbe9072f4bf4136f1U,
  0xbf54076a3f0a8974U, 0xbe0fa08d3e46d4c2U, 0x3fc8e97a3b6d8040U, 0x3de6a36c3deb3f56U,
  0x3d537e653e040790U, 0xbcd63c493db2bafcU, 0x3dfee8a33e868a43U, 0x3e42bbc5be0f77f7U,
  0xbed4c077bea1ea38U, 0xbe382fefbe40ea48U, 0xbee79c7c3e6614a6U, 0x3dc535d53e14f5d6U,
  0xbed440d33e376b0eU, 0x3ed633cf3e723f05U, 0xbf42b133bf277458U, 0x3e1822d7bef43874U,
  0x3df5e9963e4b8869U, 0xbe2eff75be15c85bU, 0x3eedc92a3f151861U, 0xbe0286af3e595697U,
  0xbe4a0257be17d940U, 0x3f12d9d4bd632321U, 0x3f427c7d3ec2b3beU, 0x3d5217443ebb1e5dU,
  0xbf29ab1b3dcf01e0U, 0xbe8c44523cfcd1c0U, 0x3ee0354dbf01e977U, 0x3e27c4db3dc31d6bU,
  0xbd839ab53da536bcU, 0xbec7e025bca3c36cU, 0x3ee2bc493d4a6d9fU, 0xbeaa09fa3e369c9eU,
  0x3ac0e3b73f77801fU, 0xbce4942d3e961897U, 0xbe920511be68ed95U, 0xbdc879673cacab0aU,
  0x3e4865c5be30d854U, 0xbee59771bd99aa2eU, 0x3f8a5d39be9bae59U, 0x3e8a27633f845519U,
  0xbeda014cbe90da97U, 0x3dfd1105bdb9fb87U, 0xbe8b5f30bf657171U, 0xbc171642be8f98a6U,
  0x3f07e44b3d49f1e0U, 0xbf9bcf89bca1c215U, 0xbb1d5578bdcd1d8cU, 0xbf35fa63bf00c017U,
  0x3e4765b9bf935db2U, 0x3d557497bebaf432U, 0xbe87ac6ebeb0b606U, 0x3dd9764ebf00a432U,
  0xbfd70661be3a0b0aU, 0xbe51d75f3e3b4e43U, 0xbe2a0ddb3db19e1dU, 0xbe4431a8bda6efddU,
  0xbd7c45c1bf2f8f67U, 0xbf2eafdabe631d7fU, 0x3ecd63b9bda6e2c7U, 0xbe35b2c73c185025U,
  0xbd8d0c79be2fa485U, 0xbeae64e2bc048757U, 0xbf39c4933db2cd30U, 0x3cfdc16cbe884d4aU,
  0xbccf9e8bbf05f036U, 0xbf5d4ce7be4c39c1U, 0xbe51f8ea3e28c10cU, 0xbe177d31bdcc4ea4U,
  0xbf8c2a83bd12d424U, 0x3e4866b2be4a76c0U, 0xbef5a553be79c87cU, 0xbe30b1dabee3e688U,
  0xbeb57d003e9d885fU, 0x3d1236983d0ce7c1U, 0xbde2a90e3e83aa7aU, 0x3c0db897bd4abde4U,
  0x3e2659c9bdc5552eU, 0x3cda05d8be4370a2U, 0x3f6c333b3b187810U, 0xbe3f2ce4be96bc71U,
  0xbf6b2924bf13540cU, 0x3da0bc8abd9cf176U, 0x3f688abbbf8dbd5bU, 0xbbf3eb8abde2f4c0U,
  0x3ebf8b1c3dc59a47U, 0xbf10f5cabdba5c0dU, 0xbecc2e31be130e63U, 0xbf384573bf12fb78U,
  0xbed35785bf4df492U, 0x3d7d00c138abe818U, 0xbe1d91243ef318d6U, 0xbd6f4cd43dcfd233U,
  0xbf23268d3e35a712U, 0x3f3d1eefbdb45bc6U, 0xbee7312cbf3833f6U, 0x3d81f37abf35124fU,
  0xbe3dbf313f370934U, 0xbdf543f0be64a690U, 0xbe744a613f4965d2U, 0x3d955c31bdd65696U,
  0xbdad510a3e3d4cd0U, 0x3f986fbe3e74e60eU, 0x3eac3267be94a98bU, 0x3f0b01a53eb47ab5U,
  0x3e2f38553f04778bU, 0xbf2af8663e7a55c8U, 0xbead800cbf48c15bU, 0xbe1c0d903c012831U,
  0x3e911c013e0744a8U, 0xbf5a35d93e20a171U, 0x3fca539dbdd325ffU, 0x3f3ac5843f903663U,
  0xbf1eda95be788ebcU, 0x3f0ab0cf3eb4923cU, 0xbde5449cbe77e316U, 0xbdc745413efa4262U,
  0x3ef68ee43dd736e0U, 0xbf3a66df3e769100U, 0x3eb52e35bf164b07U, 0xbe9c5dcdbe38cfe9U,
  0x3e41ce16bf667b0fU, 0x3eb22688bbc74eb2U, 0xbf3a117dbf12a37eU, 0xbdf6480c3d7407ccU,
  0xbfeeb6263d312d40U, 0xbf2d0d2abd55b9ccU, 0xbf5becbd3e428116U, 0xbeeff4733f2ac633U,
  0xbf37abafbe1b6d76U, 0xbe65d8753dd48331U, 0x3f7a9c1abf8b900bU, 0xbcc86c58be4a8a0fU,
  0xbd4c1305bd9afe7eU, 0xbf5344c93e43c5d6U, 0xbf80694c3f01d3ceU, 0xbf696596becb861eU,
  0xbe83c419bf7ba6daU, 0xbe972099bd92eb03U, 0xbf27279f3f959f22U, 0xbe12c26ebd6243ffU,
  0xbea4876f3ca9ac68U, 0x3f9931b4be3e7193U, 0xbeda9f51bf16e7c6U, 0x3de422c7bf02c97dU,
  0x3c69c1563ed18856U, 0xbdd5973f3dce9b27U, 0x3f6b03d33f8189cdU, 0x3e4d17f0be6a4cceU,
  0xbf1be68fbe1f5c8fU, 0x3f8badd93e0ec0dcU, 0x3f09407b3e59e5b4U, 0xbe8c88743e0039c4U,
  0x3dfa2fff3df57524U, 0xbede24673de54fbbU, 0x3c5d0870bf64ba8fU, 0x3db253bd3d90bf23U,
  0xbfc45ad03c545740U, 0xbf8d883a3d904dc7U, 0xbecffcd23ee11f9bU, 0xbdc9da6e3eb16a2bU,
  0xbea3a6473d268535U, 0x3e23f8b8bd49a0b2U, 0xbf94ce3bbf43affdU, 0xbe26a8cebde6c93fU,
  0x3e8839fcbe27c97aU, 0xbf86e9b9bdd19df2U, 0x3e6feaebbe8450deU, 0xbd538e2fbdeef6f5U,
  0xbec1b8bbbe0dcfd4U, 0x3f7b89fb3e17245bU, 0xbe22f68abf0074cfU, 0xbdb75f0d3eb5e72cU,
  0x3f9223263d952270U, 0xbf70008b3e329daaU, 0x3ee9bff7bdc696e8U, 0x3e9a6111bec38cc7U,
  0x3dca310fbf770191U, 0x3e2257f5be9d9fffU, 0x3ef1c0b43f9cbb47U, 0xbe83b6f9bd851713U,
  0x3dbf8040bd22a178U, 0x3f86a7f03d3bfabdU, 0xbed77fb0be8c0cb7U, 0xbdfb1043bf66ec2bU,
  0x3da100febf009111U, 0x3c91ccdabe8c9b5fU, 0x3fa74eb5bf0da879U, 0xbe5b6ae5be92b41bU,
  0xbf427ad13e14dd20U, 0x3d3c1f2cbdec8a42U, 0x3c6023f63f261777U, 0xbf40082dbdc867c1U,
  0xbf35efe73e561f34U, 0xbe5f45173e028b7bU, 0x3f68d19fbe982454U, 0xbcd2a1fa3c718ebbU,
  0x3e4e32813e3ad0d6U, 0xbf295a183d3fcb6cU, 0x3d9434a6be5be2f0U, 0xbd85dc2c3c64bd42U,
  0xbf492044bfcd9d93U, 0x3e19ae5cbe6320f1U, 0xbee106613ef054a4U, 0x3e2bad553e70190cU,
  0x3e174b473c96eb30U, 0x3f2e281d3e816763U, 0xbf181390bd35e2d1U, 0xbe28ce50bf6df5a0U,
  0x3ea4bef43dcf9f5bU, 0x3e6725133e2baf93U, 0xbea2dd233f48b380U, 0x3d92bb0e3d570178U,
  0xbed152b2be02d5f7U, 0x3ff810fbbdcec4f4U, 0x3d920f8cbea95387U, 0x3da718f6bf23f8ecU,
  0xbdc9b1b93f1705bfU, 0x3ea52e75bd9ffcd4U, 0x3eed9e0cbc87cf16U, 0xbdb9d8d93e067debU,
  0x3e5a0c79be200ddeU, 0x3f6df8553d7b06bdU, 0x3f8605b33e91b4a4U, 0xbe15889b3f695295U,
  0xbf066e6e3f4f61d6U, 0x3c65c54c3e23294bU, 0xbf5dcaa8bd93f854U, 0xbe7c7d163d2cbea5U,
  0x3f8632db3bd43460U, 0xbe7df83bbd2c1826U, 0x3f074de8bee01c96U, 0x3dc656f53f882774U,
  0xbe92636abf3cbac6U, 0x3f331476be66845bU, 0xbe1c2ac5be40f3b4U, 0x3d16a3ecbdbdce97U,
  0x3d5846b13d7837d8U, 0xbf32a9953d815eefU, 0xbf0534b2bf43eabfU, 0xbee6f1edbee49eb9U,
  0x3f608d53bf76a454U, 0x3e906c8abec93d82U, 0xbc8e04f53e78eec5U, 0xbde7dc67bebf7b7fU,
  0xbfd893603ca6cf60U, 0x3e99cd16bd633b1cU, 0xbf59307f3e316108U, 0xbe414b6c3d7ec65dU,
  0x3ce77b23bef665aaU, 0xbe68da3cbe5bb8f4U, 0xbdb4e30bbf02ef56U, 0x3ddf42c33afb7bc2U,
  0xbd9d92843d9767a0U, 0xbec98af93b0819a7U, 0x3e12ceeebd671889U, 0xbdf683c0be3265e9U,
  0x3d930069be2946c2U, 0x3d1160b7bd88d832U, 0x3d6e31bcbeda0412U, 0x3dab6da7be20f040U,
  0xbe9168833dc01cacU, 0xbda780aa3b42e53aU, 0xbe71ae3f3d5afbc6U, 0xbd8cb4f43e04c5b3U,
  0xbec9ccd53dd645edU, 0x3cfa75c5bdd55676U, 0xbdba8881bef683e6U, 0xbd13c304be890e63U,
  0xbf266bfcbbc54f60U, 0xbf24a7a63b672926U, 0xbe2f7b77be63a711U, 0x3d4718953cba0670U,
  0xbe0451b3bf3d8524U, 0xbcb5b45abe2e5d95U, 0x3eb7991abf0b6d8dU, 0xbd2c6a383d86e1ddU,
  0xbf0157d5bcef8a28U, 0xbdfb5f42be333b06U, 0xbe897033be282866U, 0xbea031bdbf32c79aU,
  0x3d5c69723d67b870U, 0x3f0dcbb8be21e8e3U, 0x3ed9f7a5bd1222d8U, 0xbd6443673c707a6eU,
  0xbe24b24abdd53c76U, 0xbdfca55c3c3e7cbfU, 0xbe0e31a03e951943U, 0xbcdfe37ebeec2fc1U,
  0x3e0024d93edb652eU, 0xbd1b7983bebc21a2U, 0x3ef526343f4a8a87U, 0x3df04328be5a5b37U,
  0xbf2168bf3e09d3f8U, 0x3f24191d3ccead80U, 0xbed9d0a23ebbd5f3U, 0xbe6d5c333ea74ae4U,
  0x3c675485bea2e4a2U, 0xbd0cc93fbde7feeeU, 0xbe8d89d8380552d4U, 0xbc856c00be816534U,
  0xbe57885cbd8932b2U, 0xbe4860f8be7dab11U, 0xbe763cf73dfa184aU, 0xbde4fee5be11b877U,
  0x3cd4d6f5be6a0254U, 0xbebdc2a9bdf0ce7cU, 0xbe28d9283e4a5044U, 0xbb9d05c0be525a3dU,
  0xbe8eca0fbd4a7078U, 0xbd5091cf3d936958U, 0xbe9e3e81be22e22fU, 0x3dbe1947be6a06c3U,
  0x3da3edb4bdf30fb5U, 0xbde2dee03b8a7264U, 0xbe98cb0fbd478782U, 0xbd3cf54cbd06084fU,
  0xbe5822453d277f58U, 0xbd819f2c3d81a9ccU, 0xbe225ccabddec784U, 0x3d4a7712be725117U,
  0xbf0f27cfbf923a27U, 0x3da70b4cbe3ac0f5U, 0xbe36f00d3f72ab75U, 0x3e2a82f33e329d6fU,
  0xbcebf6873b6bf380U, 0x3faa8d59bd9ca5daU, 0xbe71d4b8bf29c5ecU, 0x3db2e519befe628fU,
  0x3e46d9d8bd232db0U, 0xbe60777abe2ca958U, 0xbd9045373e58b61aU, 0xbd7bb0b23e4797aeU,
  0xbecd517f3de93cbcU, 0x3f965be5bcebe7aaU, 0xbd2233be3f0d130bU, 0xbeed1ca83d02a662U,
  0xbf11066dbdf91b08U, 0xbeb7188e3e2e8226U, 0xbe9addb5bee2e73aU, 0x3e0831103e8600f9U,
  0xbe4d15613e1b8beaU, 0xbf46d77e3cdac0faU, 0x3e09a547be80180eU, 0xbe3b62e3bd8e0cc0U,
  0xbe86ac35bf76ac31U, 0x3f100df13bcd0464U, 0xbeeb875d3f96fb7eU, 0x3dca05c43de8695dU,
  0x3e333a7cbd832030U, 0x3f950d603e2775cfU, 0xbf0d093bbf391fd0U, 0x3e7a31d4bf1758cfU,
  0x3e97d326be88152aU, 0xbe80f3a33d572419U, 0x3e574ece3f25912bU, 0x3da1147fbd989d21U,
  0x3d282880be0d8ebcU, 0x3f63b2a53e110597U, 0xbea0c1cf3dfbfb26U, 0x3df506e1bee30d90U,
  0xbef720cabe1b4c98U, 0xbe8c79fa3dae25b3U, 0x3f2b9d3cbf1c9a63U, 0xbcd3a5bc3db13912U,
  0xbe895fa83d4042f0U, 0xbf1c62773afb6e06U, 0xbdbd1fdc3ebf31c2U, 0xbe625122beb7c93fU,
  0x3e31f73a3f677197U, 0xbf06b0d93e7d871dU, 0x3eb2c788bf074b69U, 0xbc08f7a03c0fae25U,
  0x3efdc104be42959eU, 0xbf251b433d8267d7U, 0x3f897c46bebb14eeU, 0x3f0c9e743f5f14bcU,
  0xbf1183d4be0af18cU, 0x3f03ddd13d9c9271U, 0xbd03fc3cbd33d523U, 0xbd128c7c3e063e1eU,
  0x3f4da5633d7beb88U, 0xbf1601903dcdbc80U, 0x3f136f1ebef5cc1aU, 0xbe4cf6e9bf1a31e4U,
  0x3ad94d5fbfd56c69U, 0x3f30b1e6befd8b87U, 0xbeb2ac4abe9458e9U, 0xbdf4491abed712edU,
  0xbf9701b3bcaa3198U, 0xbf544f54bd8f00a9U, 0xbef70bb63d6a4c8fU, 0xbe31572ebea3e993U,
  0xbe2c81f3be7569ecU, 0xbc20b753be202eefU, 0xbe6ad7c0bde7b154U, 0x3decb42abe0afbb1U,
  0xbe77f407bd140420U, 0xbd68fcc93e4fc7b4U, 0xbeecce233d331a0cU, 0xbe1b6582bf038ecdU,
  0xbe3fbccebe9fad16U, 0x3dca5cc93d1736e4U, 0xbe809c50bd60c4d3U, 0xbe10a99a3df424b4U,
  0xbd1c085d3d409cc8U, 0xbd78f4a53d7005c7U, 0xbe1c1b9c3d16211dU, 0x3d710ecc3dd786b6U,
  0xbe296dd8be5cc9ceU, 0xbe55e08dbdf76788U, 0xbe850b99bba42ee9U, 0xbd1941a13d823078U,
  0xbdfc4391bde645f5U, 0xbdba7fc13c814195U, 0xbdedcc27be2e952bU, 0xbd8b6f8abdd3ccb5U,
  0x3f22d5e93f0ccd42U, 0xbe4ebb89bcb1f0feU, 0xbefbc3d0be5e5625U, 0xbd26fb82bcd04229U,
  0xbfa3c491be0edeb8U, 0xbf8acf763e6ade56U, 0x3f82682b3e07880cU, 0x3e022d043f993665U,
  0xbf218b7d3ef097e4U, 0x3e9a69313ecef759U, 0xbc7ada0abf33b015U, 0xbe4d24ec3e63df7bU,
  0x3f44e0b13e07ef12U, 0xbf1c56f1be31a34aU, 0x3f318b83be6f5856U, 0xbd8a1c80bde30bdbU,
  0xbed6881abf93e567U, 0x3f5a0c0fbda4dacaU, 0x3e0c5978bd8a7d56U, 0x3cd01035be95762eU,
  0xbd92333c3e1789beU, 0xbf3a755bbd99c738U, 0x3deefb00be4268e9U, 0xbf5745dbbf63590bU,
  0xbe4332493d0ce20aU, 0xbd69607abdac4270U, 0xbd5f48c8bd457385U, 0xbc253809bd7cbb1dU,
  0xbe91c37a3e1bc0b8U, 0xbe0adefbbdecb50fU, 0xbe26b552be8de04cU, 0xbe0a90eebe3cfcb6U,
  0x3ca46f343d11353eU, 0xbd709a4c3c1bd183U, 0x3de5932abddd8529U, 0xbd38bbd73d05867dU,
  0xbeac2c0c3e2f2c64U, 0x3dcbfe11bcdd4176U, 0xbd2e0bc3bcb3ec17U, 0x3b0b57fc3d840f9eU,
  0xbdb8b09d3d8c3a5aU, 0xbdf58c83bd411cbcU, 0xbde4917e3d9f64b2U, 0xbe822878be7cd6b1U,
  0xbe69e0fcbcafbf68U, 0xbe4a7c053db3f324U, 0xbdd1cd9ebe698a07U, 0xbca0e1b8bda38a7aU,
  0xbd10795fbe19cd9aU, 0xbd7505e33db6ff4dU, 0xbeab6b95be04a701U, 0xbe167cf2bd196625U,
  0xbe993c61be19c3a2U, 0x3dc369eb3e44c2e4U, 0xbdc5decdbe6efb42U, 0xbced8d08bd96f664U,
  0x3cdad439bdaabba5U, 0x3d7d7bbdbc43892fU, 0x3e25aa4abd67fa42U, 0x3e5f5da73c79ccd5U,
  0xbd9eafb7bd1d314cU, 0x3c352feabc84bc83U, 0xbe072c27be388694U, 0x3d8c0d43bdf86128U,
  0x3d9d21bbbe12ce98U, 0xbdb07b67bdd05e82U, 0xbe918fe3be291548U, 0xbd90bbacbe327ad1U,
  0xbd2a82febcafbc08U, 0xbe32d1a33ce45834U, 0xbe1aae93bdb81710U, 0x3e056bd13cc8e551U,
  0x3d9986c1bf9be8d8U, 0x3ed58ce43e844e47U, 0xbea6e6403f8f994cU, 0xbddd1cd83d4fede3U,
  0xbe8b69d5bdbb80dbU, 0x3f8fe0dfbe0de987U, 0xbf6abf95beb14766U, 0x3e9cdaf2bf6d57ccU,
  0x3e04f678bd48792eU, 0x3ea1508abd2d2bb1U, 0x3edb72f13e339a07U, 0x3dbb46cdbea074cdU,
  0xbeff8ce0be16fba0U, 0x3f71a4c03e07d85cU, 0xbe9bdefa3f3f59a0U, 0xbdbf593dbddaeb50U,
  0xbf2d14453f0d9403U, 0xbebfa2953e2fdc21U, 0x3e971c273f2f7f54U, 0xbda040123e94d72aU,
  0xbde06efbbd56e85cU, 0x3edc086bbe1e8e54U, 0x3f3c4c033d310b37U, 0x3d4de1683f02f814U,
  0xbf51f718bf2d07a8U, 0x3cfbbf43be20691fU, 0xb93676b9bed19687U, 0xbdb5eee1bece19b9U,
  0xbf2f2ca2be404f8bU, 0xbf088493bc8d9840U, 0xbe29b6c4be106fe9U, 0xbf885698bedf43b6U,
  0xbe898baabf31c436U, 0x3f00a76f3de4c3a9U, 0xbe9f530e3ee04102U, 0x3ca1f1383ee533afU,
  0xbc6174d33dfb65b8U, 0x3ed4e529be3ccd4cU, 0xbe45fb23bead78b6U, 0xbe5b82f6bf60a061U,
  0x3df139453ea96885U, 0x3d30e15dbda8e099U, 0xbee8448c3ea4d8efU, 0xbe47d5c93de1753bU,
  0xbe0dc1a3bde18ad7U, 0x3f7db578be02917fU, 0x3f257c2f3b3ae0bdU, 0x3ec232d7becfad1aU,
  0xbf025943bfb6c547U, 0xbe50ebecbeab04ddU, 0x3f19e9cebf736c90U, 0x3e275812be47cbe8U,
  0xbe77e3e73dbfcf98U, 0xbf0275f6be2eb966U, 0xbf0bbf44be4f0d28U, 0xbf4b8053bf339ee1U,
  0xbec7080fbf26aa5bU, 0x3d1ba9f83ddf4458U, 0xbd9e99b03f3eaa96U, 0x3e4d247e3e4e163bU,
  0xbe2badc2be330beaU, 0x3f77e31b3da0b90eU, 0xbf2bfef0bea666acU, 0xbc3252cebf4d872cU,
  0x3eb65313be339386U, 0x3e8c0521bef28b64U, 0x3d39d7413e93dcf9U, 0xbd09e8a83e1850a2U,
  0xbc83e082be25883dU, 0x3f8758cabd34e788U, 0x3ecdf823bd011417U, 0x3f2834c4bdbe7466U,
  0xbf63ea9cbf36f8e0U, 0xbe1ec0ccbdb38c66U, 0xbeb887fcbf8b62adU, 0xbd9495703d6a7e47U,
  0xbeee10fbbdcd75e5U, 0xbf254065bdb3f911U, 0xbf005cd93d5a0f73U, 0xbf53c285bf661c68U,
  0xbda4aba4beac0d3bU, 0xbcf52fc93d837cb0U, 0xbf0d93133d8261c3U, 0x3e487e7c3ea83c08U,
  0xbdfdc9873dd0403cU, 0x3edb8fad3e099dd4U, 0xbf06aba0be6c4869U, 0x3f0bf149bce709e4U,
  0x3e7382fb3d95d6e0U, 0x3d3f35c9be059948U, 0x3dc695a83e9b9379U, 0x3e3619163e83d44fU,
  0xbf306e593de11580U, 0x3f2cca753d5fc670U, 0xbe7e94083dd3b28bU, 0xbe397f403dc44f7fU,
  0xbe01e8363f122555U, 0xbf3241b83e5bb978U, 0xbc9d20d7bf0ac1e7U, 0x3d28ccf33eb462d3U,
  0x3f35ed88be4ac7f3U, 0xbf3e75953e109a7aU, 0x3f908114bee52a0aU, 0x3f229c353f62cfebU,
  0xbf092594bd397343U, 0x3e9c4e303e38d392U, 0x3ee62ca1bdd16144U, 0x3e6f47e03cc2770eU,
  0x3f425ef9be2109d8U, 0xbf072631bdb20cd0U, 0x3eb6c39dbf5f95b4U, 0xbede295ebefe7718U,
  0x3ebf9383bf144166U, 0xbd8c1964bd938cc1U, 0x3cee7465beb30080U, 0xbdbb4110be5562abU,
  0xbff16ec23e01ab18U, 0xbe6ad9d6bdfbbe09U, 0x3e13f713bcbd581aU, 0xbebea0bb3d436e19U,
  0xbea676623f66c545U, 0xbe6ba5c6be42e2abU, 0x3e37a015bf18e413U, 0x3e27bf70be3b31f8U,
  0x3ec7590fbc293c50U, 0xbf63de5e3dc25cb0U, 0x3f998bb3be25ef9fU, 0xbe8026383f6c6920U,
  0x3d7f12c7bed7452eU, 0xbc078d43bd8a941dU, 0x3e378aafbf895a79U, 0xbe0989dc3d9566a3U,
  0x3e9369dfbd67f5e8U, 0xbececd90bcdac5fbU, 0x3e9b3655be811b3cU, 0x3e1329013e77b514U,
  0xbdcaa331bedb868aU, 0x3ee68e1abe49be99U, 0xbe4a8758bf80d9bbU, 0xbe479bf8bb8afd53U,
  0xbf94452b3e475836U, 0xbec0c20bbe18ddaaU, 0xbf0306b4be0134b1U, 0xbe15e7b53c23c4cbU,
  0x3da7a371be23f0a4U, 0xbe84177f3dbcd3a0U, 0xbe856b25bf8341d4U, 0xbce58ba8be0c0e42U,
  0xc01498313cfd0150U, 0xbf97a812bd890a28U, 0xbe9fa8a13eabb827U, 0xbd89bbe33e0e786aU,
  0xbde92aa93e41dab7U, 0xbf20e652be4691e6U, 0xbf3f1bffbed04ac0U, 0xbe1cfd923d805547U,
  0x3f2a524c3ddaf288U, 0xbee231cebcea2eeeU, 0x3e26c3ebbeb6394bU, 0xbdce921ebe5c3425U,
  0xbf0246c7bdc70aafU, 0x3e85c9e6bd82fcbcU, 0xbe8a6c49be658c98U, 0xbe82ea293e6fe9fcU,
  0x3fac6f763e00f062U, 0xbf4ad0013e12f996U, 0x3f1f6d8bbee86701U, 0x3f152545bd8a7cd1U,
  0xbf0bd087bde9034fU, 0xbed49a05bf262f36U, 0xbf1bf0e8bee33818U, 0xbe81cf5fbf4219bfU,
  0xbf0db7dcbeed60adU, 0xbef2bf6ebf3a4b13U, 0xbc867c3abf5625a9U, 0xbe4f6468be820e66U,
  0xbe619cf4bf264f8dU, 0xbe914cbdbf0a20f4U, 0xbec9dc35be88e4c5U, 0xbeb48bf2be3bdd0bU,
  0xbf2420a3bddc9605U, 0xbf00ec86bf054758U, 0xbe5a7733bf3b3d64U, 0xbe01b7d6bf21be9dU,
  0x3e0e96c93e5c10acU, 0x3e1f85a9bbd5e2fdU, 0x3eca1a2b3f8571a4U, 0x3ed0bac8bf49a980U,
  0xbe71abac3ebc33f9U, 0xbd1615f23f2a8aedU, 0xbc31a2073f6af1f8U, 0xbe1f2fccbe3e9495U,
  0xbe1baca93d738f35U, 0x3f54f9973ea9d7caU, 0xbdfffd86bdd3fd0cU, 0x3e51e861bf00615fU,
  0x3f389225bba52a76U, 0x3d28c2953f156ebdU, 0xbf1411f03e4427f0U, 0x3c40b282be0d1e6dU,
  0xbdb91e013e0fbf52U, 0x3e8173983cec74b9U, 0xbcda53493f37fe24U, 0x3e8dac5abf57789dU,
  0xbf7aadb23ecf17a2U, 0xbea54bbb3e81c83fU, 0x3f1b6822be486d02U, 0xbec337f0bf2150fcU,
  0xbe4d82723ea63a57U, 0xbed11ad33ebc2534U, 0xbe3e71aabeac0e42U, 0xbe2abd02bf1fb768U,
  0x3f2b142fbea3773cU, 0x3f3bba803eb20030U, 0xbe34321bbebc1ef1U, 0xbf2faa053e86de21U,
  0x3e37de92bcbb9e1bU, 0xbe28980bbce3b222U, 0x3f5b6ad33ec65ee8U, 0x3f159187bee45483U,
  0xbf0660f03e940ebbU, 0x3ef5dd4f3d8dde10U, 0xbdd511933e33d6a9U, 0xbe8b00eebf8237bfU,
  0xbd88d155bf553503U, 0x3e16ce73bd1bbce4U, 0xbe2bec06be84e382U, 0x3e8fea32beeeed62U,
  0x3d3aca423e8a13ddU, 0x3eba92213d98666eU, 0xbf02e745bdb51217U, 0x3ea55ddc3ee1f9e4U,
  0xbe0761f23e7449d0U, 0xbec8dec13f0bfb4fU, 0xbe94ee5fbe35db20U, 0xbd6bf2e5be9eec4cU,
  0x3f49abdfbeba7c51U, 0x3eb8724cbe9960a8U, 0xbcad20f9bce41ba7U, 0xbf1b86b43f27f4f1U,
  0xbd2e9a183dd8be3cU, 0xbf18011ebe80fdf6U, 0x3e89a2b23f3b1913U, 0xbec1fd743cdb2022U,
  0xbdc7b4f83e82a6dbU, 0xbdf5d54ebeb229fdU, 0x3e469835be8f11e0U, 0x3f594d033f0af815U,
  0x3ec95435bde5b7cbU, 0xbd217f1d3bc83e26U, 0x3e7616603f5603faU, 0x3f019576bd12d63cU,
  0xbf170a343c3b1fc0U, 0xbf19dab3bf1cb4f9U, 0x3e41bd253dd33f7bU, 0x3d8fb7bcbec558b0U,
  0x3eadec88bf8eeb94U, 0x3d84227bbe92678aU, 0xbe5796edbe707fd0U, 0x3e1784b33d52b007U,
  0x3e1caf95bea28b90U, 0x3ee615133eb233f0U, 0xbe8be8673e79c4d7U, 0x3f1a51253ef5df10U,
  0xbeca8158be62206cU, 0x3f2f57e43e059aa6U, 0xbe29bc6dbf97e0d4U, 0xbf05b0653d57f82fU,
  0x3c5e55f4bf421426U, 0x3d566353bf450a1dU, 0x3f102d083d2b9e32U, 0xbeae1c65bdecc3f2U,
  0x3e580c293dc30359U, 0xbec8cc06bf0ffdcbU, 0x3dbaaaeb3f6f5c7aU, 0x3dc1582b3f271458U,
  0xbedc2089be02256dU, 0x3e17f25c3e00e1ebU, 0x3b94cd573d47c006U, 0x3dd8d8d23ecedbf6U,
  0xbd8f6543be4d446cU, 0x3d54f939be9e3f16U, 0x3dbdc549bee5b691U, 0x3f30fd243daf9649U,
  0xbf416566beb7f77eU, 0x3f2292efbf35c110U, 0xbe4ea5223d6d59daU, 0x3ec62b01be2d8bd3U,
  0xbdb74e7cbe888258U, 0xbd9328cdbea1ac0aU, 0x3ee66d0f3e814657U, 0xbf0ed51a3ec0ff47U,
  0xbe9ddd373eb67913U, 0xbe9af54f3e041600U, 0x3f077df23df1567eU, 0x3f4d3a07bc2aae1cU,
  0xbe2da9443dffd352U, 0xbe958723bb5f745cU, 0xbe8d6d22be8cf711U, 0x3e16527abf38eef8U,
  0x3dc02013be820c83U, 0x3aacf63abf24595cU, 0xbf79b064bf01b965U, 0x3e5592da3c063e00U,
  0xbdc593803e81c277U, 0xbf09b3ac3ef8e972U, 0xbd99fb99be33680dU, 0x3c084c08bedf42e4U,
  0xbf80995bbea802a2U, 0x3f4e5e56bec0135dU, 0xbeb9e443bf0a1c26U, 0xbe5c6d57bf23de62U,
  0xbf06b816be5c44daU, 0xbecd8a733c8ce638U, 0xbe6d6066beee80cfU, 0x3e8067b93f643c7cU,
  0x3f28975abf1eeb9bU, 0x3e5ef8a0be618a91U, 0xbdc03935bea4dc9fU, 0xbd4abfb83ec8e74fU,
  0x3d08e88e3e989784U, 0xbecf3c0dbedbeca2U, 0x3edda23e3f322882U, 0x3e9b7e063f059051U,
  0xbe9f44f23c86f1ccU, 0xbc8afbccbf06e45aU, 0x3f4022c4be6891c6U, 0x3d5335543e6fd400U,
  0xbe83e9c33da00915U, 0xbe81703f3ee2477dU, 0x3eb6f5dc3d92fab6U, 0x3d3ea1393e4bdec9U,
  0xbf861b37bdcc4e0fU, 0x3e44e100bf1c6e0eU, 0xbf17f25ebe82b927U, 0xbefe46863d7ad961U,
  0xbe405d0bbeaa77edU, 0x3ce73ef4bf2a0789U, 0xbea89af1be85f3a3U, 0xbea06831bf4d2110U,
  0xbeba77023e513418U, 0xbf1aef8dbe1c6f16U, 0xbd9bbec4bb830250U, 0xbe6cd8bd3ddff3f2U,
  0xbdf3f3b83db3bf75U, 0x3f357d12bf085df4U, 0x3f18f14dbdca774eU, 0x3f8f58513e8dcac1U,
  0x3e71745cbe9293bcU, 0x3f590c65bf0b3c9eU, 0x3e6fe5b53d69f745U, 0x3dc05a8d3f4be251U,
  0xbc5264e7bee5d1feU, 0xbf3f5466bdb24935U, 0x3eae63293f34218eU, 0xbf1e959e3f5440f4U,
  0x3f62c8bc3ce57970U, 0x3f1409b53d097c99U, 0x3f2f8256bee4ee31U, 0x3f8678c23e8e3c12U,
  0xbe7d689cbdaeac61U, 0x3d8b67363ed42d19U, 0x3e18a5013ee575b2U, 0x3ee2c2dcbeb7890fU,
  0xbf1ec5c13f200442U, 0xbf2f0118be6f1923U, 0x3eb1bc313f95145eU, 0xbceb6da0bdd23ec5U,
  0x3da6f862bf31a045U, 0x3f21970f3df18974U, 0xbe17c0393e627363U, 0xbdcd0ec9bec517fbU,
  0xbd669f763e34455cU, 0x3e0d5b4c3eb240c1U, 0xbd2366fbbd7b74a5U, 0xbf3855ad3d8f0259U,
  0x3ee076b03cb4122cU, 0x3f43d87c3dfaef77U, 0x3ec1f036bf8959dfU, 0x3f0ec8d93ed979edU,
  0x3f10e135be3d9515U, 0x3ea01a0cbe7798a5U, 0xbe64fced3d4d428eU, 0xbe3359703f856437U,
  0xbdd5623bbdbf0331U, 0xbeb55d60bf28ab52U, 0x3ef7ea323ec06e2cU, 0xbea45f643f8da416U,
  0xbecf7a80bd862840U, 0xbf536886bee3a4deU, 0x3f29001dbf08114eU, 0x3fad7b9f3f5530acU,
  0xbe480f9ebdf594f4U, 0xbd321fa3be8923dfU, 0xbd8d1bb9bd7321fdU, 0x3d86a06bbe2a149dU,
  0xbe9996f0bd1dfe46U, 0xbe18f1723e33fc82U, 0xbee57762be987600U, 0xbd49c588beb0282bU,
  0x3e46e5dabecb2547U, 0xbebb93bbbbf27263U, 0xbe490f1cbf1767e5U, 0xbdb9c7e1bc70a672U,
  0xbee32b73bbdae4c3U, 0x3c6a65ffbec11a4fU, 0xbc8c134bbe4031b3U, 0xbeb015b8be8762d3U,
  0xbe5ce426be7c6b65U, 0x3f9517b03e178a69U, 0x3e4b6139bf879837U, 0x3e929512be1ce42bU,
  0x3f1cc231bf4d170aU, 0xbe462940be807b7aU, 0xbf52182b3eacb73dU, 0x3ed5d2873f466385U,
  0xbe73c2b0be720056U, 0xbf08dab4bf0757e8U, 0x3c142b303e24f7c3U, 0xbe6ef70ebe015b0bU,
  0xbdb07207bece0fb2U, 0xbeadd720bebbcf5bU, 0x3fafa6843e48af97U, 0x3dff04913cf6a283U,
  0xbdaed375be48d1faU, 0xbecf6d7ebd8ff943U, 0xbe70e192bf14c3d6U, 0x3bdc0baa3f43a170U,
  0xbd878c6cbf5788dbU, 0x3f283ae5bf3112deU, 0xbe93beb7bf0ee7a1U, 0x3d6d04d43f8d7ae4U,
  0x3e0183f03f149ee2U, 0xbdf10310beadb77fU, 0x3e0dfa1d3fe6b04bU, 0xbdae2ea23eeb9372U,
  0xbeea00f4bbf5f227U, 0xbefd20cfbf289d98U, 0x3e8d7453bbdfa634U, 0x3f17e5903f1f6f17U,
  0xbf162ed6be978182U, 0x3f419ac53e394df9U, 0x3e2e3ec0bee4f19cU, 0x3e2921be3f8cfa76U,
  0x3efe2645bef2b473U, 0x3ec9e8b3beddaa57U, 0xbf04bca8bddbe21dU, 0x3e4853b73ef77719U,
  0xbd012e5d3e3f785aU, 0xbec8015dbf1c2357U, 0x3ec156203ed4a30bU, 0xbf284dbb3f5b9d7bU,
  0xbea4b15fbd030c18U, 0xbe150f59be4d8125U, 0x3f3b9502becf35c7U, 0x3f5693d03f20e1b9U,
  0xbea91b773ea07173U, 0x3f50a498be8eb06aU, 0x3f003d2cbdd20048U, 0x3ed52e36bc27f3dbU,
  0x3e864abcbf1825abU, 0x3ebd097bbee0592aU, 0x3d309e803e36cf4bU, 0x3ea91ef23e82d9aeU,
  0xbd88aa67bd913ad2U, 0xbdeb51dabdd8e9c4U, 0x3ee00d623d98870fU, 0xbd2f79033e2f3eb1U,
  0x3e06e5da3ddde683U, 0x3e2f5037be96f82fU, 0x3f39b5fd3e5ca0a4U, 0x3f49de89bd1cce63U,
  0x3f2a0915bdfc2415U, 0xbde2e5eabe2a3de6U, 0x3eabfbba3e77890eU, 0x3ef7db99becb2840U,
  0xbe8144543e64a1b4U, 0xbd01f3073f082511U, 0x3de09ca13f823554U, 0xbeb3c72bbf26a9e2U,
  0x3dcf9ece3f0454bcU, 0xbeafc5f9bed40e8cU, 0xbe05d46d3e10ff17U, 0xbc6aad88bf491a33U,
  0x3f1f487b3e4b61ebU, 0x3f980891be6bf04dU, 0xbf2fa21d3e932dc2U, 0xbf056effbf052baaU,
  0xbeaa05eabe294d01U, 0x3e26d5723e209d4eU, 0x3d98971fbf3a8b68U, 0x3ec9c4c33f690b0fU,
  0x3f201b0dbf2abd67U, 0x3f0d1a6dbef434f1U, 0x3ec629e5bf3896aeU, 0xbf0ecf0f3e7a71d6U,
  0xbe3d9513bf058cd9U, 0xbf23fc7bbf009a5eU, 0x3ed9132d3f20d8ccU, 0x3f1d836e3f5e375aU,
  0x3dbfd3aebdd1de45U, 0x3ce1bb2cbf1480e3U, 0x3e9808f5bf140d55U, 0x3f445fd63f2eb579U,
  0xbf19cbae3e1069e6U, 0xbf70f491befa5c22U, 0xbf30ed573e14e890U, 0xbf55763ebeb84da7U,
  0xbed7d064beece09fU, 0xbee4f3a1bee48b92U, 0xbfd083d43e509013U, 0x3ec4fce4bf9c85dfU,
  0x3ece7bb1be9a86dbU, 0xbf2c011c3bcab6e0U, 0x3e6a8679bf6f2037U, 0xbdf6b098bf6ee7ecU,
  0xbf6d0f15bd8e5739U, 0xbf0fb1f1beefcdfaU, 0xbf29a12cbef2f854U, 0xbf8e0c58bdf95769U,
  0x3f14225d3e2ce967U, 0x3e9c68123ea4359fU, 0x3f13957d3f3593f7U, 0x3e472a98bf264bf8U,
  0xbf1d57d43e9a6ce2U, 0xbe29ef5c3f145e23U, 0x3eb7dbdb3f2c25f7U, 0xbec919aabf1019afU,
  0xbd70ea2abefbd40aU, 0x3e81fd0c3e889ddbU, 0x3d9e988f3dac759aU, 0xbd7ca2ccbec77056U,
  0x3f0e9caabea40022U, 0x3f1e938e3f05e047U, 0xbec3024cbd115e84U, 0xbf060d0d3cc9e266U,
  0x3eb736fbbcf6f6d6U, 0xbea5e392be0a8675U, 0x3e3ac7dd3e96e4a5U, 0x3f3b29c9be71f6b4U,
  0xbe5fe0e9becb8d86U, 0xbf11497cbe13aa8aU, 0xbf352b9f3e8f8039U, 0x3e1e0b813f2568b4U,
  0xbdbbf220bda2daf3U, 0x3f6156b53ed13374U, 0x3e825549bf143c5bU, 0xbd0055c63e73729bU,
  0x3f66fd3c3d66bb28U, 0x3e31c5b43e62d3eeU, 0xbed5b0d93efea29cU, 0xbe7b41f43e6272d2U,
  0xbe8c3cfb3e696ad2U, 0x3d8f9e6b3db44117U, 0x3f11825e3eede135U, 0x3e40b4b8bf3446d5U,
  0xbe7fc336be8f612bU, 0xbd38ce003de37a35U, 0xbf59b4a4be4692dfU, 0xbe34129cbe8b8ea5U,
  0x3cf349c53f139f0cU, 0xbf6ae8e2bf8d0dfbU, 0x3e574078be64b16bU, 0xbdcdf3ff3ec957a2U,
  0xbee787293c82bb97U, 0xbd7eb9f8becb9a58U, 0xbed351a9be5320e6U, 0xbe6840443dada33fU,
  0x3e2dd2073ddeb078U, 0xbeaa73343e2dcbbbU, 0x3ef5750abf3ff576U, 0xbdbe8f1c3f9fde35U,
  0xbf4028adbf3d72d6U, 0x3f8526dabef0873cU, 0xbe385896bf5affc2U, 0xbe9aa3a6bf1badc3U,
  0xbd76bc77be98c321U, 0x3c86f7f5bdfade34U, 0x3db444ec3f1e1a7bU, 0x3d3d931d3f583e9fU,
  0xbeafbd1bbe520480U, 0x3bfe929ebeec1333U, 0xbe53c2423cbe9fd1U, 0x3e37b4f53f34edfeU,
  0xbf4d56773e15246bU, 0x3f40cc543ef36f09U, 0xbe422336bf61edadU, 0xbe8d2f7d3ec5b50dU,
  0x3d239550bead93b3U, 0x3ecb74aebc9d1f7dU, 0xbea77514bf3b1c16U, 0x3e5bef4b3f77f61aU,
  0x3e4d7a5dbcc28027U, 0xbe7d2381bf07f2a9U, 0x3e53a85f3de78b9dU, 0xbedb76ec3f437ee5U,
  0xbdd04c5f3ea0afe4U, 0xbf0f3ca9bf2b18caU, 0x3f3976bf3d9336c0U, 0x3f0cd52b3f27437eU,
  0xbf0f1f373e6b32eeU, 0x3f4252efbca74094U, 0xbe1e9bcbbf3a4c01U, 0x3edcb3143f08fc2aU,
  0xbf14824abea59852U, 0x3f476df2bf4222c3U, 0xbeaba7b9bf324a5dU, 0x3ee5d5f5bf428827U,
  0x3e1a4bd23f2c4ca3U, 0xbeb64e93bf012e09U, 0x3ee2bcc43e58d89cU, 0x3e2119283e8505ebU,
  0x3d9c25253e206930U, 0xbf891fbbbf770e3fU, 0x3fc2de133e353f61U, 0xbf27162f3f035361U,
  0xbec2f0583e96959cU, 0x3f3f6ebebe100482U, 0x3e272e033e8fe2e1U, 0x3e79d92ebf6475dcU,
  0xbebf5243bf21b4eaU, 0x3eafe6d3be9b2b85U, 0xbe480f63bea3851eU, 0xbea33614be4207c8U,
  0x3c653c83bef0d03bU, 0x3edf7e73bdb719ecU, 0x3e80c435bd7e5e76U, 0xbd9134ffbf4fcffdU,
  0x3eb76796bd724d6cU, 0x3eaf523a3ec4f3ccU, 0xbe8dc9703ea3a76aU, 0xbe0d9d5a3dd1a471U,
  0x3eff8ffcbe743c01U, 0xbf2c92c23f326f27U, 0xbe178a413c78d1a1U, 0xbf40bcb33e5554fdU,
  0xbe8a0f373f04b165U, 0xbe99ca573f1949beU, 0xbf9b1fc33ed25a30U, 0x3efe899ebea3d34aU,
  0x3dd08649bdc3057dU, 0x3eec98db3dc77361U, 0x3e8ef45bbf61d2d9U, 0xbe1acfa3bf442681U,
  0xbe4eefc03d740599U, 0xbd07aa023eebc5cfU, 0xbe18ac253e8e6047U, 0xbf817f2cbf41ad4dU,
  0xbf95be77bdd28a96U, 0xbddf91413e4a6b32U, 0xbf46b1d9bf470ce1U, 0x3d7b32e13dc53fbaU,
  0xbf2dfeb1bf8c6884U, 0x3e58d045bf0af37bU, 0xbf56f3b8bf2126fbU, 0xbe160d053f17366cU,
  0x3e3846debf7c37c8U, 0xbf451b16bf5c35a6U, 0x3de5518ebd8b6052U, 0x3e6f7f333e873b72U,
  0xbf11cd64bcafa3e2U, 0xbedf15d0bee14dcdU, 0x3f05cf5bbf1a63fbU, 0x3c44c3b33e4ff447U,
  0x3f726380bddaec8bU, 0x3e83cd953f3a8b6bU, 0x3ec9cb9b3fb7e805U, 0xbdd4f417bee44a45U,
  0xbe6c901e3f1345e2U, 0xbe97d5a73e86c884U, 0x3f0505a23fb2c2d5U, 0xbe83af40bed18c22U,
  0xbe41727c3f0c15f3U, 0xbf272fa23e760119U, 0xbe03aa503d850ed6U, 0x3d1d635fbf40e87bU,
  0x3f2337eb3e138d38U, 0xbe0ecfad3fc395e4U, 0x3e0458953eb794c0U, 0xbf31867dbf070f22U,
  0x3e906f723da4acbdU, 0xbd8d5e993e302087U, 0x3ec80ca6be6c9ab7U, 0xbc76657cbf3a6acdU,
  0xbeb2407b3f41fc62U, 0x3cf641e33f2f3b36U, 0x3f0390383f8f69f1U, 0xbee1d07dbea1d7e5U,
  0xbd4509713e0700c0U, 0x3f23f75c3f32adacU, 0xbed1675e3d708d03U, 0x3d1fcbcfbf227a7fU,
  0x3f7f6b9fbda11858U, 0x3f357e6d3f0dbb24U, 0xbe437eb93e2ae1ddU, 0xbeec74cdbf51fa6fU,
  0xbf41aaa6bee084caU, 0xbef8b5f4bedb5f0eU, 0xbe7a498ebeca07a1U, 0xbf4408dcbf03ed13U,
  0xbefe6c3abe9399e7U, 0xbf6b4d4bbe7b1f23U, 0xbf1542c2be0d2b95U, 0xbf075ba8bef6d29dU,
  0xbe8f84a3bebef078U, 0x3ef1e2a1bf83b879U, 0xbf5835ae3fa5d081U, 0xbef436a6bf092c78U,
  0xbe4a0882bf1f7620U, 0xbedfe438bef9d571U, 0x3f61826a3f0dfaccU, 0xbf154206bf9895bfU,
  0xbed224953e9e53b1U, 0xbd48c69dbe7abe29U, 0xbd688d933e10f5d2U, 0xbe77715bbe0873cdU,
  0xbd5f9bdebea1c75aU, 0x3df1080a3de3fbe4U, 0xbe6bab33be3d19c6U, 0xbea370b4be7a430eU,
  0x3dfa2dd1be38abb2U, 0xbf84baa93d842afaU, 0xbc08bceabf42989eU, 0x3ecd16debddbaef1U,
  0x3e04990fbf162f4aU, 0x3e814772be45d2c7U, 0xbf993c543ecde340U, 0x3e88c7b83efc5b87U,
  0xbf5714d9be566e61U, 0x3df3737fbecd5992U, 0xbe8a9fd43dee84a2U, 0x3e13603dbe70d681U,
  0xbf43d41f3ddfde83U, 0xbdee81f4bec20affU, 0xbd3daf8fbf0de246U, 0xbf2fecfabf872d74U,
  0xbe3ce51cbcd9a31bU, 0x3e73db9abe8149d4U, 0xbe8345b14018b7c5U, 0xbddba7c8bf00135aU,
  0xbeae7f12befc4849U, 0xbcf56f41bf5eb23fU, 0x3f6e3f333f0c84b4U, 0xbf3f241e3dfffb12U,
  0xbf4f599ebe97438fU, 0x3eea8875be33f492U, 0xbdc54a6c3dc66414U, 0xbebdda3e3d999250U,
  0xbf07d6a73e2885ebU, 0xbee96c8f3eb02824U, 0xbceee4a53e9c593aU, 0x3eccfad2bd9d30e5U,
  0x3e8427143e3d076cU, 0x3e4c7dfabeac279dU, 0xbe45b943bfcc3434U, 0xbdd3d76ebecbfe77U,
  0x3dbb07593e428271U, 0x3e0137dbbd70a210U, 0x3e494ea6bf507a50U, 0xbefa654ebeec0d08U,
  0x3f9fc08fbf898864U, 0xbebb8d4bU,
};



AI_API_DECLARE_BEGIN

/*!
 * @brief Get network weights array pointer as a handle ptr.
 * @ingroup network_normalized_data
 * @return a ai_handle pointer to the weights array
 */
AI_DEPRECATED
AI_API_ENTRY
ai_handle ai_network_normalized_data_weights_get(void)
{
  static const ai_u8* const s_network_normalized_weights_map[1 + 2] = {
    AI_PTR(AI_MAGIC_MARKER),
    AI_PTR(s_network_normalized_weights_array_u64),
    AI_PTR(AI_MAGIC_MARKER)
  };

  return AI_HANDLE_PTR(s_network_normalized_weights_map);

}


/*!
 * @brief Get network params configuration data structure.
 * @ingroup network_normalized_data
 * @return true if a valid configuration is present, false otherwise
 */
AI_API_ENTRY
ai_bool ai_network_normalized_data_params_get(ai_handle network, ai_network_params* params)
{
  if (!(network && params)) return false;
  
  static ai_buffer s_network_normalized_data_map_activations[AI_NETWORK_NORMALIZED_DATA_ACTIVATIONS_COUNT] = {
    AI_BUFFER_OBJ_INIT(AI_BUFFER_FORMAT_U8, 1, 1, AI_NETWORK_NORMALIZED_DATA_ACTIVATIONS_SIZE, 1, NULL)
  };

  const ai_buffer_array map_activations = 
    AI_BUFFER_ARRAY_OBJ_INIT(AI_FLAG_NONE, AI_NETWORK_NORMALIZED_DATA_ACTIVATIONS_COUNT, s_network_normalized_data_map_activations);
  
  static ai_buffer s_network_normalized_data_map_weights[AI_NETWORK_NORMALIZED_DATA_WEIGHTS_COUNT] = {
    AI_BUFFER_OBJ_INIT(AI_BUFFER_FORMAT_U8, 1, 1, 11920, 1, s_network_normalized_weights_array_u64),
    
  };

  const ai_buffer_array map_weights = 
    AI_BUFFER_ARRAY_OBJ_INIT(AI_FLAG_NONE, AI_NETWORK_NORMALIZED_DATA_WEIGHTS_COUNT, s_network_normalized_data_map_weights);

  return ai_platform_bind_network_params(network, params, &map_weights, &map_activations);
}


AI_API_DECLARE_END
