/**
  ******************************************************************************
  * @file    network_data.c
  * @author  AST Embedded Analytics Research Platform
  * @date    Sun Feb 13 21:16:59 2022
  * @brief   AI Tool Automatic Code Generator for Embedded NN computing
  ******************************************************************************
  * @attention
  *
  * Copyright (c) 2022 STMicroelectronics.
  * All rights reserved.
  *
  * This software component is licensed by ST under Ultimate Liberty license
  * SLA0044, the "License"; You may not use this file except in compliance with
  * the License. You may obtain a copy of the License at:
  *                             www.st.com/SLA0044
  *
  ******************************************************************************
  */
#include "network_data.h"
#include "ai_platform_interface.h"


AI_ALIGNED(32)
const ai_u64 s_network_weights_array_u64[ 1490 ] = {
  0x3d1de5833dc7a246U, 0x3da1e2e3bc5664fbU, 0xbdd20929bd29b252U, 0x3e00ba7bbd4aea7fU,
  0x3defb03b3b6fad1fU, 0x3d0a7f543cb2cf63U, 0x3dbf6514bc22a272U, 0xbddde5673d45aea3U,
  0xbddc9200bbcadb58U, 0x3c58b4d83dc433c8U, 0xbdfee59ebd731d72U, 0xbd1784ddba6ab654U,
  0xbd434de6be2aee2eU, 0xbd922bf73ccc12c8U, 0x3dc097253c3d3541U, 0x3d3535863d658c75U,
  0xbd86f98e3e0f1d23U, 0x3e181e81bcbfd761U, 0x3e20e64bbd86f952U, 0x3c499de4bd9daae0U,
  0xbdf18a5ebd020fb1U, 0xbc72a447bd887f49U, 0x3e0c896c3c746193U, 0xbab550b2bdba05d2U,
  0xbd830a2bbcad9cedU, 0xbdec53663db51101U, 0x3dc0b2353d8c3adeU, 0x3d5fc51dbbbc5858U,
  0x3d36040a3cad0ec4U, 0xbdc33f023ab3ff96U, 0xbb8325dabda78b43U, 0x3dff7554be0877cdU,
  0x3df95d3fbe30898dU, 0xbd32ddee3ccf87bdU, 0xbd0b9fa23ceef26bU, 0xbdb6efd4bd70bfdaU,
  0xbe0f12c7bc857597U, 0xbd974e3ebb81764bU, 0x3d3539ce3bb140aaU, 0xbda2b159bd89f0a7U,
  0x3d7b81c0bce0b40eU, 0xbc7166193da60379U, 0x3d8e47d93e0db7beU, 0x3b9a1ab13dd42f25U,
  0xbe3647253d98434cU, 0xbd53c9ac3d9aa265U, 0x3d939be23e09b37dU, 0xbca031943c1ab1cfU,
  0xbdecda3abcf89e42U, 0xbdd4f50cbde5a6b2U, 0x3dd552833dc8a5f0U, 0x3dfff6f9be36694cU,
  0xbe0142e5bb9e8df4U, 0x3bf91507bcd0224eU, 0xbdfdc86abc26c07eU, 0xbccfcbb03d027780U,
  0xbd61bf833dbfad07U, 0xbcd161f53e2620bdU, 0xbdb3f9d5be353019U, 0x3dee4f7abd29a30eU,
  0xbd8708ffbc8ebd98U, 0xbdf0b5b1bdf806f1U, 0xbd65eff33ce041e8U, 0xbc8e7d83be089792U,
  0xbe1b341e3d23a249U, 0xbdd0ac2cbd819ffaU, 0xbd5ada54bd1df035U, 0x3ca1826b3d9fa0bcU,
  0x3d332bac3e3516a0U, 0x3dfb1219bd566448U, 0xbe1fb37fbd81c092U, 0x3cb13b19bdbd8d5bU,
  0xbd5e2e24bddda1cbU, 0x3d06d8283d68edd5U, 0xbdd50ec5be2a0349U, 0x3ddee7b6bdb99ecfU,
  0xbc78cef8bdc243ddU, 0x3ddc440e3d69b47aU, 0xbd19e3653db2c245U, 0xbd90ce373d9593d4U,
  0xbd46dc09bd97f862U, 0xbd3723babcb0a81aU, 0x3d60d3903d620251U, 0x3de3489bbe01f611U,
  0xbdb6f426be2ed4edU, 0xbd41ecb83d253940U, 0x3d604877be006c3cU, 0xbcc0530bbdced034U,
  0x3c2b479ebd745518U, 0x3c8f80da3c814b89U, 0x3e05d3dfbdcf99c4U, 0x3dc9c3dcbe1bd12fU,
  0xbd789b67bd192be1U, 0x3d88e1203d0c5c9cU, 0x3d10ed91bde1321dU, 0x3df78db03e2408e1U,
  0x3e131f64bcd274bfU, 0xbc1237783bdd3354U, 0x3da0baf6bd045611U, 0x3d9b82f13d865994U,
  0x3de01204bcf6181cU, 0x3d2b9aeabd71041aU, 0xbd75c0603dbcff78U, 0x3dba6314bc99298dU,
  0xbe16fcf63cfb63c0U, 0x3d21ffbabd8d1822U, 0x3db7a1fa3ceb5ab4U, 0x3cecf9fc3cb4af16U,
  0xbd4eb1a83bd4c610U, 0x3d0ad416be13da2eU, 0xbd7460333ded5c87U, 0xbdc9e131bb0882bfU,
  0xbdfaeec9be2162eeU, 0x3d8df740bd4773eaU, 0x3cc0e9b03d99cc95U, 0xbcca684abc21d389U,
  0x3d9790943dccd2c5U, 0xbde0a843bc6efeeeU, 0x3b03e473bd9cdf80U, 0x3de05b643da63574U,
  0x3bab4e17bd14568eU, 0xbd0a192c3ca116a9U, 0xbd01da883c8a9d62U, 0xbd10d45e3c648938U,
  0x3c4b47fdbbf5f6efU, 0x39e461aebd1b9994U, 0xbcda6992bbc76870U, 0xbbac5de9bc6cbdcfU,
  0xbd8105093c71c92fU, 0x3d8aa638be467e08U, 0xbcf7435e3de112bdU, 0x3e43b882be0b6975U,
  0x3c27be023e3a5c88U, 0xbc3482883d9b7543U, 0xbe12f8bd3e1988abU, 0x3d5f0f4f3c88331cU,
  0x3d9e19b1be345d6cU, 0xbd04f7febe643684U, 0xbe263015be2f971bU, 0x3d9c4ee2be15d355U,
  0xbe4c1f8f3ddcdc75U, 0x3d92fc3abdd21da2U, 0x3e0ccb833e3cebceU, 0x3e02b9343e365b4cU,
  0xbd2df1a93df96e3eU, 0x3d1334e6bb53003cU, 0xbe18ff03bd1fed91U, 0xbe0eaae63d2c70d9U,
  0x3e41f87c3d20c8c2U, 0xbe19789dbdb76df7U, 0x3d17a23abcec2c3bU, 0x3dd763853c1ca4f4U,
  0xbe13356a3e2a447aU, 0xbe22729bbe2c8ac8U, 0x3df0fb963e22c1adU, 0xbd8f0bf5be2c4de7U,
  0x3e1ed45c3d91277aU, 0x3d43838bbe424cd6U, 0xba683ddd3e2bd666U, 0xbd1c34db3d79dd72U,
  0xbd87d4c73e3f6973U, 0x3db0f6253dfe99ebU, 0xbe0801d43c873300U, 0x3d7bb669bd732c7fU,
  0xbe483eac3d0f50adU, 0xbde696a63e0bdc95U, 0xbe2085803d9e1a75U, 0xbc5dfb623d9c3c38U,
  0xbd9803803bea3e03U, 0xbd7067d53d51b9ecU, 0x3e3913833d1d5580U, 0x3dc3d565be4e903dU,
  0xbe1e3b2d3e2bad95U, 0xbd5dc056bdc6ba97U, 0x3d879ea13e35bbb3U, 0xbd514f79bd5ae288U,
  0x3e258431bca3c875U, 0x3cfcbb2a3dce553fU, 0xbd6fe665bd11c1c9U, 0xbdbbad0cbc8b23d6U,
  0x3da6665f3e00e113U, 0x3e0734603dc48dd7U, 0xbe4b1d7d3dec6c85U, 0x3dd1a921be47f47aU,
  0xbe21ae3e3cc027daU, 0x3e2709babd475c77U, 0x3e1aeaa8bc2280c9U, 0x3e1cc9e0be1ca0c3U,
  0xbe36f2f13d8c7798U, 0xbda23dfc3db34bb1U, 0xbd2eabf73df19181U, 0x3d6c9debbe0dfdffU,
  0xbd2b9981bdb6b186U, 0x3dbec194be39758cU, 0xba86000abe85c7f1U, 0x3d8154cbbdacdaf8U,
  0xbe1bfc3ebd2d127bU, 0xbd28bc1fbcfa2cb4U, 0x3d8e4ae23e313debU, 0xbe493a72bc8b1e4eU,
  0x3cf981773d3bd299U, 0x3d9609313dbbea56U, 0x3dcc4ebe3d83bd4aU, 0xbe4816e7bd6a597dU,
  0xbd9273fbbd318441U, 0xbe163873bdca0728U, 0xbd96de843d0ab484U, 0xbe28764dbcc1b5c8U,
  0xbe131a55bc8f4e58U, 0x3cc984ee3d2eff8aU, 0xbdd2924fbe383094U, 0xbd6ca4a6be0f499fU,
  0x3ce700b5be4632a6U, 0x3de2a09e3e0e1210U, 0xbe176023bd6e36efU, 0xbe1774913d35fdaeU,
  0x3cc12e073d0e51c5U, 0x3d7dc934be3ad1f5U, 0xbd4d5f26bd774086U, 0xbd489c503c88a2bdU,
  0x3cc3bb563e2936e9U, 0x3d10b6ae3d88dd9cU, 0x3e2e5df33e14f3e4U, 0x3db8b395bcbddecbU,
  0xbc941824bdffb81aU, 0xbe412a24be470742U, 0x3d4bac26bcba47c3U, 0xbe04326dbdd2eb63U,
  0xbdabd9c33e14d939U, 0xbd73a767bdc3f9b5U, 0x3e461e423cbd050bU, 0xbbc9d2eb3e4fd484U,
  0x3e0ff26e3d8b5d76U, 0x3def6cc23e246bdcU, 0x3d9415223d14014dU, 0xbc9fcc82bdebbaaeU,
  0xbe05ea323e151f4eU, 0xbdfaff67be30cf88U, 0xbe15c273bc2d68eeU, 0x3df363303e52784bU,
  0x3e61f2e33d39049cU, 0xbd817b143df63521U, 0x3cf514cf3d4b8706U, 0x3dddc4113dd466ebU,
  0x3e31c836bdd72efeU, 0x39a86ba9be2b8731U, 0xbdb9dddd3d92daedU, 0xbe3d43c9bdaaf568U,
  0x3b4412b83e33f216U, 0xbe12ffe4bdc145e1U, 0xbe1c39e73db48ad8U, 0x3e4315863d04f292U,
  0xbe0742e7be19e197U, 0xbd74d0cdbdd6fd7eU, 0x3e0adf973da90e0dU, 0x3e335c03bc045a90U,
  0x3cb26f18bca0258aU, 0xbd4396403db54324U, 0xbc6cbfa5bdc29930U, 0xbdb1d0bf3e0e7ebbU,
  0xbdeaf84bbd3b064bU, 0xbe3542aabe4de957U, 0x3dbc4e503d71cbf2U, 0x3c475643bd666123U,
  0x3c61b11abe116ceeU, 0xbd4856f9be231270U, 0xbe0c28c1bd5b7288U, 0xbcc59e9c3e17e1baU,
  0xbe5bc154bdb55a15U, 0xbdf5638f3d078f46U, 0x3e39d1db3daf4dcaU, 0xbdff77463ce65b90U,
  0xbe1c0d453e1b7730U, 0x3d91744fbc77ce3bU, 0x3de721b0be2d7b5dU, 0xbe26c007be044998U,
  0xbe0a51c53b2dbebaU, 0x3d2534ccbe21c41aU, 0x3d896fe1bcc1887bU, 0x3d9a8d093e3073acU,
  0xbe119e253d0968a8U, 0xbbf1148cbde18abbU, 0x3d7ffcd53bf79f07U, 0xbe20f16abe453ad5U,
  0xbe5b23a6bc8e2be2U, 0x3e559d3dbd615a0dU, 0x3e033b50be266691U, 0x3e11ecfe3ca76bb3U,
  0xbd1c06a53e06b1f6U, 0x3dcf6dafbb93ce67U, 0xbe02c368be675d33U, 0x3c35f946bd90c47cU,
  0xbdf109513e4a71b2U, 0xbdb57c28bc932067U, 0xbcd3dae23d1b2d47U, 0x3b14d670be4b85bcU,
  0xbde8652fbdbf2e0fU, 0x3e3c85c6be37fc28U, 0xbd9ca6e4be1a7ec0U, 0x3e22e0ccbdd4a14eU,
  0x3dec31883e1dafccU, 0xbe02753abe2d84abU, 0xbd4eaa48bc35dc40U, 0xbdb3ee053e187c56U,
  0x3e32acde3c088d50U, 0xbe0e91d5be099cc1U, 0x3e037a56be4bffeaU, 0x3ca76ca8be352306U,
  0xbe004ffe3e3ff22cU, 0x3baf0a203d692bd0U, 0x3bf15ac0bd737ddcU, 0xbe248db03dae447cU,
  0xbdf881e5bd962354U, 0xbdab57453d05c8f8U, 0xbbe3b0e0be11b0f1U, 0xbdf3ba32bd1e8894U,
  0x3e069938bd2cb3e8U, 0xbdab45623dad1470U, 0x3da9d130bc5c89b0U, 0x3d2cea783d9fc664U,
  0x3d562fb23c34a6c9U, 0x3e34ca18bdd6bfeaU, 0xbd81246f3d2f7964U, 0xbd73bcd7be475384U,
  0xbe3b3b05bcc0dc4cU, 0xbdffe2d0be55d26aU, 0x3c915c353b955eb6U, 0x3a6111ebbe09b08aU,
  0x3d46937d3e47d450U, 0xbdbc84393db5db6cU, 0x3e33b6cdbdcc42e1U, 0x3e0436723db0c241U,
  0xbb997a45be5628aeU, 0x3d29bb39be44a15dU, 0x3d867aab3ce96bf5U, 0xbe400bf3be2ec07aU,
  0x3d8d9f273df02fcbU, 0x3db98ab23a74fcbeU, 0xbdb2126dbc9dd425U, 0xbca225e6bdc52b41U,
  0x3e27d7143e15dc0aU, 0xbe3f02ef3c128294U, 0xbdd75eecbe392d0cU, 0xbd930bae3e2ee548U,
  0xbd0a28113d993feaU, 0xbe06d38ebe1be8e7U, 0x3e0a4a4b3e0f141eU, 0xbe21fd14be309d21U,
  0xbe5397053db320a6U, 0x3e10e322bc56d3b5U, 0x3e3454e83daf727eU, 0xbe084530be0a0d4eU,
  0xbdb11d083cb3da89U, 0xbd6b21803d07e8dfU, 0xbb477923bdd80d49U, 0xbe4eb5ec3e0d8e09U,
  0x3e247197be0ac8c4U, 0xbd31af513ded1a1cU, 0xbdde12dd3d40bfe3U, 0xbd57c26dbd5393b9U,
  0x3e79cbce3e161fddU, 0x3e07cbcabe2a7674U, 0xbc37a38cbd3f9b56U, 0x3d6e4beabd962a1dU,
  0xbaa656673e092b41U, 0x3e091f893df4956bU, 0xbd9b7ebbbe4432e4U, 0xbe5526333de4eee4U,
  0xbe0096373df51c47U, 0xbe466c693ca554a9U, 0xbe52043bbe36271dU, 0x3c02af5bbe548fddU,
  0x3e0aeb88bd99855dU, 0x3e2459ec3d1af408U, 0xbd7befe23d14b1d3U, 0xbe3b6e0dbdda1cb5U,
  0x3c98bd91bda5f7b3U, 0x3cfceb0c3dfdca76U, 0x3c9b88bebd1eaed9U, 0x3e3d12d2be3cd893U,
  0xbce8d3cc3e2c0536U, 0xbdb14aa9bc84c0d0U, 0xbdf2532cbca6c295U, 0x3e1e5b28bdd64e5fU,
  0x3e6ec2b6bd937103U, 0xbe39c91abe047503U, 0xbe52617d3e6c655dU, 0xbe27aa703e060127U,
  0x3c9882173db13a24U, 0xbe04c9f93d78779fU, 0xbe40ad1d3da63271U, 0x3cd8e92d3d085024U,
  0x3cf1c92d3da7ff16U, 0x3e275adcbd5ba674U, 0xbe61b9b53d50ea8cU, 0x3bafb96bbe46fa24U,
  0xbe42be4e3ce2f7ddU, 0x3e2a55aebcf71c09U, 0xbd6c6b5fbdc04609U, 0x3e04d4b93e021662U,
  0x3c8907313dc9218fU, 0xbe51046ebe682b10U, 0xbdd86fad3ac7ed98U, 0xbe42d04a3dc2764cU,
  0xbe4bca043dc86306U, 0x3e01f1f73dad7f02U, 0x3dd6414e3d8bf940U, 0xbd92a2843e122630U,
  0xbdfbee9e3db9b77dU, 0x3e19aa1abe492ce5U, 0xbe26919abcc88cb8U, 0x3e326973be7012ebU,
  0x3d887b863defbba5U, 0x3d4635f1bdc08defU, 0x3dcd8cab3d960e86U, 0xbe5853d5bdea3e8eU,
  0xbe2f03373d9279feU, 0xbc844be2bd82f551U, 0x3ded142bbe2b2545U, 0xbd12f66fbdab8c98U,
  0xbc5be6d5bdb7359eU, 0x3c41c2003c2d5946U, 0x3e297db2be1ad4dbU, 0x3d616450be3de794U,
  0xbe41e407bdbab665U, 0x3dbf8e3abcf3e66eU, 0x3e1a062abe273c73U, 0xbb7745863c97a51eU,
  0x3dc66fb33e135e4aU, 0xbe1109c93e103cffU, 0x3d74c11d3cbf85b7U, 0xbe838e04be64bc9eU,
  0x3dfb2ae83e1ea165U, 0x3c90591cbb9df3c6U, 0x3e0d4d63be0f37f1U, 0x3e0c4a2a3e0f2076U,
  0x3e32a0273e27ea6eU, 0x3da334a9be82a3b0U, 0x3dae0f6cbddb91d9U, 0x3b3f22c0bd50a594U,
  0x3dd88a9bbe51dd4eU, 0x3e00704abcf0fb06U, 0x3df3caee3db49ad6U, 0xbdb44a0e3e1ced27U,
  0xbde97e413d2c593dU, 0xbd90f3ee3e3a989aU, 0xbdaa8fa8bdf09112U, 0xbe1965783e024adcU,
  0xbc94fc303de38dd5U, 0xbe09dbf53dcc328aU, 0xbe2e8b3a3c11927aU, 0x3e1cd0733de4a610U,
  0xbe217776bdaf396dU, 0xbe222ed7be56ca41U, 0xbd40ee6ebe3f32b2U, 0x3e000d5e3d9e17ddU,
  0x3e03c7a4bd1de263U, 0xbe3cce8f3d952c38U, 0xbe0984ce3d0c983bU, 0xbe12a497be16e0e1U,
  0xbe37bd563d29b9a8U, 0x3cbbca07bdc8922dU, 0xbd5c8f6e3dda0e4fU, 0x3d954d1d3e4aa0d2U,
  0xbda57e533e1736d7U, 0xbc547e73be093d8dU, 0x3e0943cdbd3c2450U, 0x3e61d0ca3c65459cU,
  0xbdadf1203e6ddba3U, 0x3e45b5e2be20d6e3U, 0x3e67d2a6be5bd9b3U, 0xbdffe7f73d93511cU,
  0x3c1c896c3db6ceb5U, 0xbdb48089bcf9cdf4U, 0x3e348ded3d53d5c8U, 0x3d20ddd2bddc7e0cU,
  0x3d882511bdb6a87aU, 0x3b632daa3d92be41U, 0x3e4cb7c33da5a4dcU, 0x3df8d7c0bd862996U,
  0x3e48ddb43e068406U, 0x3d681a9dbd8a89cfU, 0x3d36c6b73d527d3cU, 0xbd84b086bd51bb8aU,
  0xbd3770a33d97e82eU, 0x3c9ff294be2da4adU, 0x3c62c10f3db318f8U, 0xbe18f75a3d0b35d0U,
  0x3e0eb053be5dacb4U, 0x3e32faccbe0934f1U, 0xbe462a753e198bf6U, 0xbdba2cdbbe474e5eU,
  0x3a2626373d3020f2U, 0x3da27c913de83f8bU, 0xbd9a5c5d3d15348dU, 0xbe584bf03e2fdcc2U,
  0xbe2893a73e41ee4bU, 0xbd9266a23df5ddc8U, 0xbd3bd1dcbd9d8e60U, 0xbe481a5abdbe39e4U,
  0xbe377cd7bc1dae13U, 0x3b9e07fabe0c28a7U, 0xbe4c2a98bdc3ad72U, 0x3dcbb5e4be4dda63U,
  0x3d1c9fa73e368808U, 0xbdfbb420bdfbf0d7U, 0xbcbef8423dce7db3U, 0xbe101f57bd8f91ceU,
  0xbd851eeb3ddd1f03U, 0x3e10ed4ebe47f659U, 0xbe0932483e07881aU, 0xbdfab561be3d315eU,
  0xbe178ce0bd07e477U, 0xbe18b7cbbdcb71e7U, 0xbcb816b93e1ad57cU, 0xbdc14f59bd69414dU,
  0xbe098320bbb91e58U, 0xbe1e1aa53db43519U, 0xbd98c5013d8c2d91U, 0x3d96f7c03d034fa0U,
  0x3e0b237cbe1a0323U, 0x3dfba269bdda7b08U, 0xbcb38f12be40a9bbU, 0x3e4a2e2fbd94268aU,
  0x3d3e695b3dc340b9U, 0x3dcbfb50be49b6a6U, 0x3e235adfbdf2d2dcU, 0x3def2fe73df422e8U,
  0xbc7c30ab3e48ee48U, 0xbdbed8cf3e1cf0d6U, 0xbdf2e8dabd642facU, 0x3e05c5cabe442c4bU,
  0xbdb8122e3e1f0694U, 0xbbc1290abe3000b2U, 0x3e345e5a3d865d96U, 0x3cc11a2cbdbf2000U,
  0x3d4209523e315578U, 0xbdad380abe128918U, 0xbb2fd8773dd78d8fU, 0xbe01b5373d359f08U,
  0xbe315b5bbe510921U, 0xbbdddb6c3e1b677fU, 0xbdb114bbbe12a980U, 0xbdc9e9c73dc4b140U,
  0x3bb6dfbebe549c2cU, 0xbd6645993d2aabf2U, 0x3e114f8abdc257f0U, 0x3ccfc72c3e54da06U,
  0x3d3c8898bdde7baaU, 0x3c1c56fd3dc972b9U, 0xbd940563be187f59U, 0x3e0cadeabe63fa40U,
  0xbd90f960bdb14b85U, 0xbe2307ec3da09811U, 0xbddc2d603cf145e2U, 0xbe2a7c9c3e3850c3U,
  0xbdfc7d773e3dbca9U, 0xbe3b01a4b931f0fcU, 0xbe457514bcc64db1U, 0xbe49ef6dbe435e09U,
  0xbe4445ac3dfb69eaU, 0x3e27ee623e21d87aU, 0xbd8de795be0a35c3U, 0x3e06e996be3e5d20U,
  0x3d7f2ba6be506a6bU, 0xbd8016353dbb4fb5U, 0x3d7857d73dbb6d7bU, 0xbcb422c5be12917fU,
  0x3c202339be5fd6afU, 0xbdf697c73e428409U, 0x3da85e6e3e0d2a0aU, 0x3e0dd56abe5f9fcbU,
  0xbe3ae7d23d806fc4U, 0xbe59802e3db00ff0U, 0xbe1af35f3d467292U, 0xbe00663b3d9fe43cU,
  0x3df0dc1b3e300d19U, 0x3e2c4d43bdf6cd35U, 0x3d0dbe0f3e7849feU, 0x3bfe83a1be035b68U,
  0xbe0b9158be4e8636U, 0x3e2f74033d3f6db6U, 0xbd165a13be3bb6d7U, 0xbde542d23d363367U,
  0xbdea157abc94e4eeU, 0xbe0e56e53d1b6815U, 0x3db2b279bd172b0fU, 0x3d7103903d396e01U,
  0x3dcf5dd9be27da1eU, 0x3d27e8313d936715U, 0xbe4c7257bd292fe0U, 0xbe381e74bdb0cd85U,
  0xbc837a413e49e9d8U, 0xbe4efc05bd7a2383U, 0xbd8d34afbe4a1314U, 0xbd0fc9073dc06499U,
  0xbaea548f3dd48c39U, 0x3e23aa483c4c35feU, 0xbcc18d623cc8c678U, 0xbdfcf1b8bde7c6a1U,
  0xbe393226bbf1c15fU, 0x3e1fd9443d714b80U, 0xbcb9bc2fbdff4744U, 0xbb19870ebe41608dU,
  0xbd46c48fbc5c3070U, 0xbd98b8b13bde655dU, 0xbe3af738be152b99U, 0xbe42c198bdb4f761U,
  0xbcc43ec73ce6628eU, 0xbd867f18bd8e22b2U, 0x3e248a923da962baU, 0x3e4221883c8a1353U,
  0xbe40f3463dc576fbU, 0x3e211af0bd8f1c13U, 0x3de5d6bb3d9a19b5U, 0xbd42b8f13cc830e9U,
  0xbc76e39dbe1fb777U, 0xbe18f8e23d84270bU, 0x3aaaac0d3cf57cd7U, 0x3cd0553dbbc9565cU,
  0x3b8c40d7bd9db5c9U, 0xbd32fdb9bd7e1821U, 0xbd42b018bdc92f5aU, 0xbd8b84233d6a3684U,
  0x3d2f78003cc0994bU, 0x3dfd70e0bd9d1e40U, 0x3dece8bebe5266bcU, 0x3deedae73dc35902U,
  0xbc0425eebd947b1eU, 0xbe36aeb23e26b62dU, 0x3d3f8ba1be04d96bU, 0xbdccc721be3e83b7U,
  0x3e28ffa6bc33e5bbU, 0xbd8a8c433dd6bbb7U, 0x3d9f1470bbff4225U, 0x3d7eba023bddf1efU,
  0xbc0c573b3dc1b949U, 0xbd9ad1d6bd7226d6U, 0xbd5fc49cbd9f151dU, 0xbdb27b8ebdd5c630U,
  0xbd87c9b7be4bde42U, 0x3d8994a0be73fb0bU, 0x3d37210a3d1a29e8U, 0x3dcd977f3e1e029aU,
  0x3e16e03ebd99980cU, 0x3e2c81963e399789U, 0xbe4fecf5bda7dd26U, 0xbde5690dbdc0ffaaU,
  0xbdbe62a8bdba3274U, 0xbe3c743ebc59b533U, 0x3e18c8cbbc8462e9U, 0x3db549a1be0c0b7eU,
  0xbe02a1a0bd8b2022U, 0xbddfcbe93db4c472U, 0xbe024ac8bdb6d06dU, 0x3ddd72afbe3fd987U,
  0x3d5a2a1bbdd44d90U, 0xbdaf0ee5bdbb529dU, 0x3df0d2e8bca86375U, 0x3d78e7fcbdecfed7U,
  0x3e2de0673e30755bU, 0xbbac00bfbce21e51U, 0xbccc4dac3d8a8326U, 0xbc57ccf6bcf4503aU,
  0xbe566e743e0f383aU, 0xbcb32d1d3d05862cU, 0xbd4fec57bdca2905U, 0xbd8cb9c5be627a6fU,
  0x3dc427f5bc4d73caU, 0xbe4d9f423d02dd94U, 0x3d62dc673e2d52d9U, 0xbd5e2157bd7eb404U,
  0xbe29fca4bd147948U, 0x3dff5ede3b5c248aU, 0xbe1710273d42676bU, 0x3da8b7dd3d9a980aU,
  0x3dd59e063db6c4d6U, 0x3db23a1dbd15df7dU, 0x3e26d36d3caea9ebU, 0xbb9e387ebad2e25dU,
  0x3bf4a6723d096676U, 0x3e12d153bd4315a7U, 0xbe10324b3dfc1dd4U, 0xbdba5c9ebe31bcfcU,
  0x3de051f9bd995755U, 0xbe32d0f03dba5c5eU, 0x3bc27536bc2df2a5U, 0xbd2630f73d3f3d87U,
  0x3dac3e113dc56708U, 0xbd99bbbabcf571b2U, 0x3e21c582be5ca4b5U, 0x3e0c49fcbcf84d3aU,
  0x3d91cb1c3e320288U, 0x3d98f4debbd59052U, 0x3dd32c643d135645U, 0x3d13cddcbe055506U,
  0xbd9ae72b3dd7a54bU, 0xbe4b7325be477915U, 0x3d566e4f3e05c90dU, 0x3dbcb7c93c3b5c7dU,
  0x3d9e10433c3268edU, 0xbe23adf43b9043b4U, 0xbdcaef6d3e61a2e5U, 0x3c9638f53d5e161bU,
  0x3c86c30dbcf11b54U, 0x3e4b556f3e25072fU, 0x3e00a07d3db49989U, 0x3e43205dbd24fd9eU,
  0xbe296b1cbbe8b316U, 0xbe1dc8d2bd74869bU, 0x3e4c48f5be2c5c04U, 0xbd8aa5f33d3e0182U,
  0xbd28e1d73cf8e19fU, 0xbd9c418c3e0bbc89U, 0x3cc03c2f3a322669U, 0x3e1f76473e3da311U,
  0x3e07a8da3d10d682U, 0x3da0dbaf3d7ea93cU, 0x3e00f8fbbcf69766U, 0x3b711ebebe03b7d4U,
  0xbe114d64bdc30c85U, 0xbdd4d987bc956965U, 0xbc5d64773e37c6f9U, 0x3e4adba2be4c3a19U,
  0x3e0d0123bb3774c0U, 0xbe3c49193e07957cU, 0x3db604883db18bd9U, 0xbe21258bbe0d75b8U,
  0x3c92219fbe5bebdeU, 0x3e3a34cebe0735baU, 0x3e07774c3ddac9c5U, 0x3db32f693d9ea5e3U,
  0x3cb57551be4a82a6U, 0xbe423055be4c7e2dU, 0xbd6933233c306c9aU, 0x3e3170bd3dcfac24U,
  0xbe2d652fbc9ffd69U, 0xbe5610253da042a4U, 0x3ddbd7413e51267fU, 0xbc215d0a3dae64d3U,
  0x3c2d0c9bbe5172c5U, 0x3e368f69bdfd585dU, 0x3a0601ecbe3ee168U, 0xbe1c6888bd0ad28fU,
  0xbdb693bdbe5ceb2cU, 0x3d7290163d01f429U, 0x3df94eed3d0f2678U, 0xbe7a835abb0418d5U,
  0x3debdaf13e3365eaU, 0xbccdbf94bd8d5867U, 0x3d36310f3df200a0U, 0xbe501f8d3b613740U,
  0x3d7078f13dac6f8bU, 0xbdc031633e168044U, 0x3bfafe753d8796c3U, 0x3d5a240cbdd140bfU,
  0xbde40418bd436a30U, 0xbc01dfe3bde89100U, 0xbdd6649b3dc8aaaeU, 0x3e2b22a7bcf76b39U,
  0xbdaeb2f8be0d7a80U, 0xbdd8dcaa3d55ddd1U, 0x3e139e563e3974e7U, 0x3dd588243d4baa46U,
  0xbd9fa2e4be5ed3f0U, 0x3e29017abe449d76U, 0x3dd3a4533e27f3aeU, 0x3df286f1be130827U,
  0x3de16ee0bdda33abU, 0x3e08626bbe136a27U, 0xbd42b83c3e13e889U, 0xbe4f2c14be19940fU,
  0xbd0c01bfbd53c531U, 0x3dc229f73dd24c47U, 0xbdde591f3e25fe4bU, 0xbd17a0f33c9dea74U,
  0x3d8693423dcdec5eU, 0x3d045a8fbe07e398U, 0xbe33a16e3dc018c6U, 0xbe438219be4c7526U,
  0xbc9925f5bcd92316U, 0x3d98c7553d0a5169U, 0xbe343d2fbd84d40fU, 0x3bb72c20be50d3f0U,
  0x3e041fb0bda1bf9bU, 0xbe1f27eabe5103bfU, 0xbd9842d73d269974U, 0x3dce8c153dd83994U,
  0xbe46512abe1320e0U, 0x3e2013ddbe2c9cfaU, 0x3e027997bd8b60ccU, 0xbe62f213bd542d98U,
  0x3e026cb3bbd326c6U, 0xbe49839d3e286ed0U, 0xbd3c5c603e1f7e2aU, 0xbe1b40b93dc03c41U,
  0xbe497073bdc59b12U, 0xbd154f9cbd23ca91U, 0xbe35898abdb1a4f5U, 0xbe21e4643e444bf0U,
  0xbdfa0a3a3dcc2065U, 0xbe4bb189bd0fdee7U, 0x3dab852b3d2824deU, 0x3d5fd74fbe24c06bU,
  0x3a361f043d6b59e9U, 0xbe6156db3e03ba4fU, 0xbdf6f22b3df40dc7U, 0xbc00fcba3e0d8df4U,
  0x3c381e31be483078U, 0x3d9b41a2be1a6c56U, 0xbcd8de663e835a15U, 0x3d83f87bbc9b5f23U,
  0x3e0fa73dbdb6d84bU, 0xbd9334a3be43d8bcU, 0x3d3aa64abe2693efU, 0x3e227288bcec0b1cU,
  0x3dcfe65c3dcd25cbU, 0xbd8f2090bd746383U, 0x3dff99793dad327aU, 0xbbc11ef93d86cb0dU,
  0xbe31d92f3c6deb8eU, 0x3dfad0883e2d15eeU, 0xbd90f521bb96bdb3U, 0x3c95d2cebe19785cU,
  0xbe622b72be447f95U, 0x3e14731d3dede1e8U, 0x3bf91bf03c2595b9U, 0x3db5b4f63caba49fU,
  0xbe54f286bde17928U, 0xbd833c42bd20c5d0U, 0xbdc45e3f3dc0127aU, 0xbda2ae093e31af3aU,
  0xbe1f551cbe046e0eU, 0xbdb20f273cc70722U, 0x3d85823a3e25caedU, 0xbc8be9a93e3ddbcbU,
  0xbc2026a53d9c56bcU, 0x3d93aceabe4e0c89U, 0xbc1923eb3d3ce1e3U, 0xbe2bd4fa3c9e4e3eU,
  0x3e0e2a853db6b744U, 0xbd9a05c83dc8dc21U, 0xbdf103523dc3d63aU, 0xbda9f920bdceebcdU,
  0xbe19c2a5be272bbbU, 0xbe0c5d153d9642c2U, 0xbe19e86d3e0563e4U, 0xbe1047ccbdc0fe43U,
  0x3def3fc4bd8a2e0cU, 0xbdce689d3d2a000bU, 0xbdcde4e9bdc9868bU, 0xbda56c15be0da32cU,
  0xbe235de33d1abd40U, 0xbd31256dbd99a713U, 0x3d96a239bd135e04U, 0xbdccc7d53e46197cU,
  0xbe2900f83e21a3dcU, 0x3cd32184bdf4c7edU, 0xbe02b041bdfcab86U, 0x3d8f626cbe26e5e9U,
  0xbcd37550bdd605b4U, 0xbb46c2bcbe23a627U, 0x3e2a96c7be45910bU, 0x3d9f8c8e3cf342d0U,
  0x3de717433d01fac8U, 0xbe66a1ffbdea15e3U, 0xbe4f9e933d80035fU, 0xbd5a40ec3dc1e014U,
  0x3c758695bdba770cU, 0xbe26a3ffbe4e5d51U, 0xbdd356233e04c6aeU, 0x3dc4cee0bcc96b48U,
  0x3c78f6b3be066d38U, 0x3d44ee75bd25f8f6U, 0xbe4ef4283d8ca243U, 0xbd9a3d38be5b3bbdU,
  0xbe09f5253e16eb11U, 0xbddb5d523dfa42b4U, 0xbda9b9103e3f8e32U, 0xbd5155103d09944cU,
  0xbe14b5dabe3ef905U, 0x3d20bfd93e31b301U, 0xbe04f84a3d7cee4aU, 0xbe3327893ddc7e14U,
  0xbd9eb4aebe5c2313U, 0x3e0a7b20bdc16fc4U, 0xbd9d96b3be0405a5U, 0xbe14b4213d81cbb8U,
  0x3e0490f93e14ec98U, 0xbcb4e496bdf52f67U, 0xbdc07caf3dcb9ea8U, 0x3d1c1035bdc8de6fU,
  0xbdbbd7553dcf221bU, 0xbd46d8e53d435e3dU, 0x3cf59f34be3d880fU, 0x3e1860083e374a84U,
  0xbc39370fbd14f2f0U, 0xbd0d7696bcccc274U, 0xbccab2d9bc15bfa5U, 0x3c30c849U,
  0xbc726362bc6d2baeU, 0xbcc199adbc2da57eU, 0xbc9b3d2fbdb384deU, 0xbc5d74a83ca6e07aU,
  0xbc911b22bca0dd55U, 0xbbb19c2cbd0c5ddaU, 0xbcbb1965bd4d2c6eU, 0xbd02481e3b53dbd5U,
  0xbce3a2f7bc24da99U, 0xbc8c2ad9bc820381U, 0xbc96d96bbccf7341U, 0xbce2a7f5bb041005U,
  0xbe214e8cbd7f7a44U, 0x3d28972dbe88a905U, 0xbdcda7fb3ea33bf5U, 0x3df091803d9810b2U,
  0x3daa93593e95d447U, 0xbe3305b3bd40e5e0U, 0xbe0ba2bdbe7cd985U, 0x3e23af003e33cca1U,
  0x3e6963553e50a0b9U, 0xbe18571d3e1434cbU, 0x3e9b65dc3dbfbee8U, 0xbc8dfaca3db55eceU,
  0x3e1faea0bd10594bU, 0x3e66abd4be8394fcU, 0x3e892375be6765edU, 0x3e3d1e213e6cd196U,
  0xbe16c1153da0f7d8U, 0x3dd179bc3e96e845U, 0x3dd98b2dbe8a93cdU, 0x3e8df011be4ebe5bU,
  0xbd76f224be724e3dU, 0xbe6b855f3e045edeU, 0xbd2cd3f03e93b50cU, 0x3d5c7d193e12764dU,
  0xbe0096813cecdc4dU, 0xbe9891f93d6cadc9U, 0xbdfed32bbd6b35b2U, 0xbe8511473d36a2b4U,
  0x3e2f4b573c52f81eU, 0x3dc3d3063dbd74fcU, 0xbe37c0713e0fffacU, 0x3cd19d6f3e5bb80eU,
  0x3ceab15e3d56345dU, 0x3da9902dbe90cf49U, 0x3e8c1a213e37be87U, 0x3e00ff723e3b7479U,
  0x3df61a573d8face4U, 0x3e8dfb853dc0ee94U, 0x3e8cee1e3e4f99b0U, 0x3d92f9213e360524U,
  0x3e63d9763b5ea9d9U, 0x3e5ab9a23d18a0dbU, 0xbd90fea5bdf870a1U, 0x3d97453abe7741dfU,
  0x3d1a4b083d432eddU, 0x3dd5c1ddbd226bb2U, 0xbe0a8eb33e962df8U, 0x3e246ee7bc0bf444U,
  0xbe3f9397bdf2f2b4U, 0xbe00c429be90a2cfU, 0xbe7ec296be3a0d64U, 0xbe6a826ebe73ace1U,
  0xbdc7d1fcbe29c7f9U, 0x3d5ebb253de6d950U, 0xbd82b978bd97abb0U, 0x3e16e422bc33e2baU,
  0xbd68b4583e9383a8U, 0x3e4e8bbebca52747U, 0xbe17a40bbdf2bd32U, 0x3e0302e33d600d5aU,
  0xbc40e37c3d2afb32U, 0x3e09946ebe6fcd00U, 0xbe724f1b3e862f54U, 0x3e3a171dbe0614dbU,
  0x3e0f2d17be6bc0b2U, 0xbe36464e3e7a7380U, 0xbdfbb4f5bdfe3401U, 0xbe86a9983d516f00U,
  0x3e66ec56bdf72713U, 0xbacc3e163e4e4728U, 0x3e321092be9325bdU, 0x3df450203e85be09U,
  0xbcfeda703e83a149U, 0xbe7e09ba3e2c727fU, 0x3da5a15b3c3b088aU, 0x3d9b80773d8012e7U,
  0x3e8b0eb63e1af85dU, 0xbe8673d03d1d57dcU, 0xbe9eb06fbe61c0f7U, 0x3e0d98fb3d96be9fU,
  0xbe5da3c6be1fd66aU, 0xbd8bd310be2e40a2U, 0xbe71a21ebe18d7d1U, 0xbe914bb4be926ffbU,
  0x3da9b75dbdc9a4eaU, 0xbe9723393e162885U, 0x3e04bf0abdf49c23U, 0x3e892a2dbd852193U,
  0xbe3c9ca3be9d53bcU, 0x3e27945e3dc67172U, 0xbe81e9e8bd2ab414U, 0x3e6e5db7bda31a1cU,
  0xbdd91409bbbbf659U, 0x3ea18b9c3d46b511U, 0xbe94741d3ac0b37eU, 0xbd6a2dd3bdd1d614U,
  0x3e22b107be886c04U, 0xbe60fdd7bd77fee8U, 0x3e6f4deb3e80ee32U, 0xbe929133bdcc9b91U,
  0x3e4640c93e30aac2U, 0x3dfb0bc33e1bd358U, 0x3e8b23263dbbe42eU, 0x3e3e1f6d3d246ee1U,
  0x3e497d993e8122cbU, 0x3e105719be352619U, 0x3e95e88bbe9de2e0U, 0xbd1ed6bd3e294193U,
  0x3e0b7bf1bd95dd98U, 0x3ea0b8b1be877048U, 0xbe2a50b13e8e73f0U, 0x3dbe50213da47ff0U,
  0x3d2f652bbe8519adU, 0x3d89a6b43e746c81U, 0x3d55c434be32be11U, 0x3e7134923e500cf0U,
  0xbe32649e3d4fd992U, 0xbe284cc63c5290a9U, 0xbc28680d3dd221a7U, 0xbe655463bd0d89ccU,
  0xbe843034be6bfbccU, 0xbdfc72773e8a7dd9U, 0xbe59608fbcb7035dU, 0x3cf217e73e98f306U,
  0xbe47d8a5bce32fd8U, 0xbe1019043bf461d3U, 0xbe6f66c03e1e0371U, 0x3e865c16bd828d6cU,
  0xbe5b25b8bcf22e26U, 0xbe24bd7abd72c759U, 0x3e4707c6bd0fce22U, 0x3c643580bcb61a21U,
  0x3e10bc98bdf3a8abU, 0x3e61641c3e885d11U, 0xbe446eb6be4022bdU, 0xbd78deecbe736f27U,
  0xbe75999f3e91ada6U, 0x3e21b8f4be7b6fecU, 0x3cd3712cbc6ff0ccU, 0xbe82aeeebe130446U,
  0xbdbc987e3dffded5U, 0xbe3685dbbea455c5U, 0xbe0f425abde72888U, 0xbea36d2bbc8ec320U,
  0x3e15ddc73cc6bbcfU, 0x3e3c0896bd81f331U, 0x3e09148d3ead4e70U, 0xbdf7e890be304ebfU,
  0x3e801d59bdfe2814U, 0xbe1164a33dd2b2c8U, 0xbe68df49bc60225aU, 0xbe4fc245bdc2b6f1U,
  0x3e776be8be1bed61U, 0x3d1524d2be8608afU, 0x3d4e067e3e3ff1e7U, 0x3e5d56ecbe805354U,
  0x3e1a48143d61f20eU, 0x3dca8fcdbe8f07b8U, 0xbe254e4dbe611d7cU, 0x3e3f1993be0b929dU,
  0xbe94ea04be994e0dU, 0xbdabd9eabd0c17d6U, 0xbe2e0ac03e84e91aU, 0x3e8a5473bd990185U,
  0x3da4e5343e6be055U, 0xbe6f10473d8d1ba2U, 0x3b1c05b23c932c38U, 0x3e05037abe6b6d89U,
  0x3e96ef533e8bc880U, 0xbe1b6a7b3e0bbe30U, 0x3e597c89bcf90326U, 0xbd3d1bbcbd0142ccU,
  0x3e6da05b3e04d17aU, 0x3d976be6bd6c56a3U, 0x3d8c0bc9bd21e180U, 0x3e21ea6d3e8fc069U,
  0x3e70e529bbd4e7f6U, 0xbdbf0c833deb31c9U, 0xbd2c91efbd897f74U, 0x3e0c3b523c34eeeaU,
  0xbe74fd633e5faf0aU, 0x3d93888bbe5b9b04U, 0xbdd60c323e95a21fU, 0xbe9f2b973e93e5caU,
  0xbcad98503a51ff01U, 0xbc569dafbe823628U, 0x3e5755d1bddd131bU, 0x3dbdb0edbe898b0aU,
  0x3e4464f43e5246dfU, 0x3e5005773e5f9f20U, 0xbe1c3be0be2771afU, 0x3e4c803e3e2b03e5U,
  0xbdcee6f5bde634b8U, 0xbe18dfcc3e8da8b5U, 0xbe80d0b6be19155eU, 0xbe363cf23eaa63daU,
  0x3e521ff53e4dc855U, 0x3da94232bdbd0908U, 0xbe0f27373d0fe7c9U, 0xbd89e50ebe74c459U,
  0x3cffc5a93e8e27d0U, 0xbe9ba57fbddfea44U, 0x3cc75689be066df4U, 0x3d0d46aebe22763cU,
  0xbd593fd4bc2e7a05U, 0x3e1c44013ddeb016U, 0xbc97eae9bdd7c151U, 0xbb7dfd1cbe1f0237U,
  0x3e974b623da7db96U, 0xbe8fdcdc3e331c2cU, 0x3e64f560be5df8edU, 0x3e90d805bd01bc31U,
  0x3dd19da13db40423U, 0x3e642339be3dddcaU, 0x3ce85b7d3e90c886U, 0x3e499441be9aba60U,
  0xbe3305cabe8bc88bU, 0x3d4d516e3cd844b8U, 0xbe7aaacfbe451696U, 0x3e67ee08be6d645dU,
  0x3d2a1328bd991e9aU, 0xbe87ef9e3db9194bU, 0xbda2efa4be409f05U, 0xbd890faabe91de88U,
  0xbe70002e3e79316fU, 0xbdb05fc73e59e243U, 0x3d038053bd93df89U, 0x3d98d570bd3209eaU,
  0xbd7b25373d4de446U, 0xbb70c6b93e1f2f8aU, 0xbdcc415d3e74ae16U, 0xbe64b6b03e4ce98bU,
  0x3e3d8c0abe61f666U, 0x3de3903a3e031e28U, 0xbe811e15bd9ac02aU, 0x3e90a3eebe18bd96U,
  0xbd763b583e09a84dU, 0xbdadc5753d11eff9U, 0x3de34c08bde178cbU, 0xbe3575b1be7b7eefU,
  0xbe3d8970bd91e2c0U, 0xbe8a54793d8c8f6dU, 0xbe272846be96846cU, 0xbd897258bd7d5509U,
  0xbdd062a5be21dbb2U, 0x3d5bb7553d9cc22dU, 0x3e7623c43e393730U, 0x3e12d02dbe05a8d4U,
  0x3badd1623df6e28aU, 0xbe60824c3e41284cU, 0xbe79c749be060383U, 0x3c012ad7be904c36U,
  0x3e803db43e8db99fU, 0x3c9c862e3cd83a2aU, 0xbe8d4a4a3e9b65b8U, 0x3e829e74bd9c1562U,
  0x3de87dbc3dca0d28U, 0x3d5dadcf3dfe182aU, 0xbe29b4f8be9f769eU, 0x3d9d6920be86d8bcU,
  0xbe9764cabc2664b5U, 0xbe29ef9ebe83211aU, 0x3d29f1683e24164fU, 0x3e908a013e06e0faU,
  0x3bf2c5b7bb152d76U, 0xbd2359d3bd9dd742U, 0x3d1ae4753e3fc4c4U, 0xbea1ec953bc29f44U,
  0x3e3e764cbe82e888U, 0xbc2237dabe8425f6U, 0xbe6cbef2be210bc8U, 0x3e71558fbe18cab3U,
  0x3ca995a9be3d7865U, 0x3d9986083d8fccaaU, 0xbe99906b3e852f1dU, 0xbe65c06cbe7372e0U,
  0xbc0eef8c3e439840U, 0xbe7f2124be2e7cb9U, 0x3e932bc8be56498cU, 0x3da7ac613e3aa332U,
  0x3e566211bde4dfa8U, 0xbe42e1503e21b0e7U, 0x3e8991e8bdcc1089U, 0xbd71ca753e9fbf1bU,
  0x3cd7662d3ddd6d7eU, 0xbe15b59bbe86c197U, 0x3d1255ec3d5b6f19U, 0xbe463f2e3e003ba1U,
  0x3daf6535bd083284U, 0x3e3f1991bcf56b51U, 0x3e858dfcbbef1d15U, 0xbe754cff3e6329a5U,
  0xbce84ce4bdbd814bU, 0xbc27ca1d3d885028U, 0xbe80861abd60cfbcU, 0xbddc1b12bd3b8f5eU,
  0x3e5e3567bdc521d2U, 0xbd9d2fe0bde1d2b2U, 0x3d0b1d033d0fc4f0U, 0xbd8cf57dbdb0aa4fU,
  0x3e8c7fa3bcb90568U, 0xbddca1533e10a795U, 0xbe089aadbe23fc12U, 0x3e53860a3e6c34ebU,
  0xbdca17c23de2e480U, 0x3e8d2646bd9f3fc7U, 0xbe7787ee3e738788U, 0x3e3f2666bc359874U,
  0xbe6ebd0a3e67efdaU, 0xbdbc8f063e07f555U, 0x3d18fd903e9a5656U, 0x3df179303e9d8131U,
  0x3e40fa62be2ab0ffU, 0x3e6ebd0a3e4cb2b5U, 0xbd2af3a03dc84f31U, 0x3e520820be8cb7c6U,
  0xbd73abe9be0c0fbdU, 0x3e6b2be4bc8103dcU, 0xbe4f51a93e4af88bU, 0xbe0a149abd72a06fU,
  0xbe6beab4bdb6ccf0U, 0x3da4e9eb3e12a6e9U, 0x3d3bd31cbe7d0cceU, 0x3e8651693e4a2e6fU,
  0xbda1fd62be82f31eU, 0xbd0d2e0c3e4db7e8U, 0xbdf996a6be880ff1U, 0x3d83ed10be55e437U,
  0xbea02aa73e16e046U, 0x3e12e2d8be91cecdU, 0x3e7a1a433e2aef8dU, 0xbdddc3b0bd00d50aU,
  0x3e8081253cb349d1U, 0x3e9847a13e242e51U, 0x3e14b30dbe67f6e9U, 0xbdfc0545be8ad44aU,
  0x3e2983d2bd1332a1U, 0xbe0aae8a3dbe503eU, 0x3e8a4ab03d2b9a7bU, 0xbd77d5503e437f3bU,
  0xbc536b41bb7276b0U, 0x3df7984ebd99c2a2U, 0x3afa5d593e2a97e7U, 0xbe9265e7be0e301dU,
  0xbe5864923e69beb4U, 0x3e6e16a9bc2eab34U, 0xbd25830cbc4e5614U, 0xbe5ef4893e979105U,
  0xbd2b8500be816ae8U, 0x3ea6aa143df264bdU, 0x3e99c3823e2d956eU, 0xbe844463bc8876c0U,
  0xbe2e3f9dbd864fdaU, 0x3dff73e93c456c03U, 0xbd7cba8ebcf7a8f4U, 0x3e0311703d9346caU,
  0x3d94a8643e9ff657U, 0x3daccb66be6080ccU, 0xbe10dde7be5e6bceU, 0x3e88370b3e93a06cU,
  0xbe0f3591be8dc11aU, 0xbe9491b33dd46f5dU, 0xbe18072abd62928fU, 0xbda7bc033e5a4caaU,
  0xbe2cd7833ea5eb3eU, 0x3c2edb173e54cf66U, 0xbd3632d53e96de2eU, 0xbd7bafb43d21c441U,
  0xbe680f42bdd5f7fbU, 0xbdf777d1bca6e523U, 0xbd1cb57e3e20b14fU, 0xbd0b4cd0be61ebb5U,
  0xbe8552af3e4234c5U, 0x3e211e11be7cdbd8U, 0xbe8aaab0b961b1f7U, 0x3e04fffc3e015c23U,
  0x3e898803be90163bU, 0x3e9b30843b45131fU, 0xbda16ee93e393612U, 0x3e88c312be606cf4U,
  0x3dabdf06be989a87U, 0xbe89c7d1bd43552dU, 0xbd1787403e4435eaU, 0xbe2c999a3e8fbcc5U,
  0x3e38df42be7bb707U, 0xbcc0af483dcb7ff6U, 0x3e13635ebce36338U, 0xbd143a203d9cb0eeU,
  0xbe8bfb133d0f7710U, 0x3e2ef50bbd265253U, 0xbca3bb2ebe902f02U, 0xbe1b2e3a3e8a38d8U,
  0xbe06e75ebc8ebbebU, 0xbe5f535c3e6c7fe4U, 0xbe9411c73e6cfe9bU, 0x3dc75f9ebe202e91U,
  0x3e972e673e3f16b1U, 0x3e7265e13e73b7d9U, 0x3b06a47d3e4edc3fU, 0xbe887b653e2c133aU,
  0x3bebdf07bd1336abU, 0xbd5687b6be096941U, 0xbdda4c83bc45f1aaU, 0xbcdde050bd46ebd9U,
  0x3b3542a0bd197338U, 0xbe4eea3abd67e879U, 0x3d8a003dbc6e65d6U, 0x3e13b95a3de1e1ffU,
  0x3e55e8f1be3c62ffU, 0x3d7208003e91feb3U, 0x3e07805dbe64539cU, 0xbcd6f347be2e5327U,
  0xbdc2be55bd7c12c1U, 0xbdb3ae8dbe56d115U, 0x3e5761b7be965183U, 0x3eb2fa613e4f1f76U,
  0xbc073257be68b81bU, 0xbd7ecec9be8fef5fU, 0x3e46569b3e461867U, 0x3d04e8a0be835efaU,
  0xbe3d37f3bdcd5395U, 0xbdd2fe9a3d7f1940U, 0x3e4d6ede3e8917b4U, 0xbe8978a03e537753U,
  0x3e0143403d80e15aU, 0x3dc036db3e34eb4aU, 0xbe8758d63df3b667U, 0xbe45c5823dc22c23U,
  0xbe5fe3c4be4f4029U, 0xbde320393c95ff98U, 0xbe7b6a403d782056U, 0xbdfefeb2bdf23d3cU,
  0xbe8fdc14bd891fdfU, 0x3ded4da53e5da707U, 0x3c31dc23be7ea91fU, 0xbe4eef143ca50309U,
  0x3e3c11053e0da3cfU, 0x3da317bb3dad13d6U, 0xbe12dbd63e16301aU, 0xbe5d16a43d8d6142U,
  0xbd46bfd1be69aa3bU, 0x3e65bd503e018358U, 0xbe8ba0d13e2d2e7bU, 0xbe37dfd5be32c039U,
  0x3e58bc2fbe94f01cU, 0x3d6f1d16bda447c0U, 0x3e79cd003e305838U, 0x3c3e8afc3d8d340bU,
  0x3d865667bdd8f9baU, 0xbd94b4d43daf7e08U, 0x3bbcbeccbe3c2788U, 0xbde60b223d899152U,
  0x3da1ebdabe574c3bU, 0xbe9677683dc9827eU, 0xbd8f04d2be5767e3U, 0xbd485320be79b9f2U,
  0xbe8c1ddf3dff552eU, 0xbe8a6abebe1621bcU, 0x3e74db133d82dc96U, 0x3e3d3b5e3d259e73U,
  0x3e8a2f2b3e93ec64U, 0xbe53f00f3d6545adU, 0xbea8ef0d3d43eec6U, 0xbea3da3b3e0d1068U,
  0x3e3af9d73e1eab63U, 0xbe5d3759be1495fdU, 0xbc9db05cbe7dcaa8U, 0x3e8b7ac9be92f208U,
  0x3e328bc2be3b2c5eU, 0x3e4e4a98be9cab2bU, 0xbe9c0ff03e884313U, 0xbe835aee3e3fb1f7U,
  0x3d151ef13e8ef339U, 0x3a1b0c00bd7bddeaU, 0xbe885dc4bdcbd624U, 0xbd3b0a803e7cf343U,
  0x3e79c8b13d8cf965U, 0xbdfeffdbbd9b21c4U, 0x3e6f44e8be4179e9U, 0x3e659a44be33837eU,
  0x3de8a073bda03b7eU, 0xbe6784ccbde435e4U, 0x3e0676bd3e7f8779U, 0xbe46b754be8646e5U,
  0x3d899ca23e5928d7U, 0x3debf44e3df54576U, 0x3b7ccb123e54dc10U, 0xbe9dc0563da6559aU,
  0xbe75974a3e32e55bU, 0x3d0fb58a3e5dd0a0U, 0x3e076e3ebe622e69U, 0xbbc46994be376bdaU,
  0x3cfd54223e6ae1bcU, 0x3e6760e5be399804U, 0xbc98ae533e444966U, 0x3d98130bbe478319U,
  0xbe81b6d83d218815U, 0xbe6f7f99be865d30U, 0x3e9a31a83e9fa63aU, 0xbdb1e7543e770debU,
  0x3d1f1fe8bc2e0376U, 0x3d87aeabbe493745U, 0xbda6df403d345b73U, 0xbdbf2cbabdb9ca2cU,
  0x3df502533e3e4526U, 0xbe975c8b3e0b46c7U, 0xbde5f0053d3afcb5U, 0x3ea194fd3e28edb8U,
  0x3e8a8e1bbe4bf58aU, 0x3ce1eb38bd966da7U, 0xbd0cf08e3c9649a2U, 0xbe1bcaabbde082a4U,
  0xbda78fabbdd51555U, 0xbcf340d83bd16d47U, 0xbd6c0225bc60f3e0U, 0x3e00c171bd0de190U,
  0xbdb9825f3cdca37bU, 0xbcfe70abbc3be509U, 0x3e1d96c8bc57aa76U, 0x3c1fe949bd72b83dU,
  0xbdec9e113e5b1988U, 0xbc13315f3dfb9382U, 0xbe030bc83dd11dddU, 0xbd012c28be2526eeU,
  0x3e0d0c0e3de49dd4U, 0x3de6021ebcc2748dU, 0xbdb8daf2bcf3c0d9U, 0xbdd56c19bd234889U,
  0xbe3bf8523ea537fbU, 0xbe1ff029bc11bbfdU, 0xbe73b43e3e21e655U, 0xbe984342be0886c4U,
  0x3e1a84a0bd0b2488U, 0x3d2814da3d862c5eU, 0xbddf0e0e3eb643b5U, 0xbeb8a025bd9e35acU,
  0x3e3e97c3bdcc7423U, 0x3e7f3eadbe482386U, 0xbd555fe13e038207U, 0xbea58df23e883a18U,
  0x3d9db232be91a438U, 0x3cd72749be757ba4U, 0x3e6287183e951d35U, 0x3e0723593e9c942aU,
  0xbec37f11bda3146dU, 0xbe7b37cd3e01a10dU, 0x3d94542a3dbb08beU, 0x3e0b654cbe1c130bU,
  0xbeb60560bdbbd2f2U, 0xbe048d8dbe8385f4U, 0x3ec2ce9abd444d34U, 0xbe5bc245be162fabU,
  0xbe90e2e83d4a54e8U, 0xbde0d1633ea59f35U, 0xbe50378b3eaec88fU, 0x3ec0207abcff7a1fU,
  0x3e83a84abdf89939U, 0x3d5e5a5abe751075U, 0xbdfbff893e1b4855U, 0xbddcd2383eb7c2f2U,
  0x3d9765e33d1fb4f2U, 0x3ea1dc873e901f86U, 0x3e83143fbd818173U, 0x3e238eb83db7ec9cU,
  0x3cb773c43ea7a604U, 0xbec195333e8e9b2fU, 0xbeabc534beb581b5U, 0x3e554e733d8333a9U,
  0x3ec30c36bd929c73U, 0xbe9fcdc03e2e1735U, 0x3e14fcb13ea413f1U, 0xbea9d0e83e626465U,
  0x3e37adcdbe11509aU, 0xbda19ae33ca9a512U, 0x3ebad17abb0d3002U, 0x3db1c891bea80f28U,
  0x3e4c69afbde7eff4U, 0xbd7d02dcU,
};



AI_API_DECLARE_BEGIN

/*!
 * @brief Get network weights array pointer as a handle ptr.
 * @ingroup network_data
 * @return a ai_handle pointer to the weights array
 */
AI_DEPRECATED
AI_API_ENTRY
ai_handle ai_network_data_weights_get(void)
{
  static const ai_u8* const s_network_weights_map[1 + 2] = {
    AI_PTR(AI_MAGIC_MARKER),
    AI_PTR(s_network_weights_array_u64),
    AI_PTR(AI_MAGIC_MARKER)
  };

  return AI_HANDLE_PTR(s_network_weights_map);

}


/*!
 * @brief Get network params configuration data structure.
 * @ingroup network_data
 * @return true if a valid configuration is present, false otherwise
 */
AI_API_ENTRY
ai_bool ai_network_data_params_get(ai_handle network, ai_network_params* params)
{
  if (!(network && params)) return false;
  
  static ai_buffer s_network_data_map_activations[AI_NETWORK_DATA_ACTIVATIONS_COUNT] = {
    AI_BUFFER_OBJ_INIT(AI_BUFFER_FORMAT_U8, 1, 1, AI_NETWORK_DATA_ACTIVATIONS_SIZE, 1, NULL)
  };

  const ai_buffer_array map_activations = 
    AI_BUFFER_ARRAY_OBJ_INIT(AI_FLAG_NONE, AI_NETWORK_DATA_ACTIVATIONS_COUNT, s_network_data_map_activations);
  
  static ai_buffer s_network_data_map_weights[AI_NETWORK_DATA_WEIGHTS_COUNT] = {
    AI_BUFFER_OBJ_INIT(AI_BUFFER_FORMAT_U8, 1, 1, 11920, 1, s_network_weights_array_u64),
    
  };

  const ai_buffer_array map_weights = 
    AI_BUFFER_ARRAY_OBJ_INIT(AI_FLAG_NONE, AI_NETWORK_DATA_WEIGHTS_COUNT, s_network_data_map_weights);

  return ai_platform_bind_network_params(network, params, &map_weights, &map_activations);
}


AI_API_DECLARE_END
